// Error interface logo (icon).
#define error_w   40
#define error_h   33
PROGMEM static const unsigned char error_bits[] = {
0x00, 0x00, 0x3C, 0x00, 0x00, 0x00, 0x00, 0x7E, 0x00, 0x00, 0x00, 0x00, 0xFF, 0x00, 0x00, 0x00,
0x00, 0xFF, 0x80, 0x00, 0x00, 0x01, 0xFF, 0x80, 0x00, 0x00, 0x01, 0xFF, 0xC0, 0x00, 0x00, 0x03,
0xFF, 0xC0, 0x00, 0x00, 0x07, 0xE7, 0xE0, 0x00, 0x00, 0x07, 0xC3, 0xF0, 0x00, 0x00, 0x0F, 0xC3,
0xF0, 0x00, 0x00, 0x0F, 0xC3, 0xF8, 0x00, 0x00, 0x1F, 0xC3, 0xF8, 0x00, 0x00, 0x3F, 0xC3, 0xFC,
0x00, 0x00, 0x3F, 0xC3, 0xFE, 0x00, 0x00, 0x7F, 0xC3, 0xFE, 0x00, 0x00, 0xFF, 0xC3, 0xFF, 0x00,
0x00, 0xFF, 0xC3, 0xFF, 0x80, 0x01, 0xFF, 0xC3, 0xFF, 0x80, 0x01, 0xFF, 0xC3, 0xFF, 0xC0, 0x03,
0xFF, 0xC3, 0xFF, 0xC0, 0x07, 0xFF, 0xC3, 0xFF, 0xE0, 0x07, 0xFF, 0xFF, 0xFF, 0xF0, 0x0F, 0xFF,
0xFF, 0xFF, 0xF0, 0x1F, 0xFF, 0xFF, 0xFF, 0xF8, 0x1F, 0xFF, 0xC3, 0xFF, 0xF8, 0x3F, 0xFF, 0xC3,
0xFF, 0xFC, 0x3F, 0xFF, 0xC3, 0xFF, 0xFE, 0x7F, 0xFF, 0xC3, 0xFF, 0xFE, 0xFF, 0xFF, 0xFF, 0xFF,
0xFF, 0xFF, 0xFF, 0xFF, 0xFF, 0xFF, 0xFF, 0xFF, 0xFF, 0xFF, 0xFF, 0xFF, 0xFF, 0xFF, 0xFF, 0xFF,
0x3F, 0xFF, 0xFF, 0xFF, 0xFE, 
};

// Sensor data screen logos (icons).
#define no2_w   48
#define no2_h   48
PROGMEM static const unsigned char no2_bits [] = {
0x00, 0x00, 0x00, 0x00, 0x00, 0x00, 0x00, 0x00, 0x07, 0xE0, 0x00, 0x00, 0x00, 0x00, 0x0F, 0xF0,
0x00, 0x00, 0x00, 0x00, 0x1F, 0xF0, 0x00, 0x00, 0x00, 0x00, 0x1F, 0xF0, 0x00, 0x00, 0x00, 0x00,
0x3F, 0xF8, 0x00, 0x00, 0x00, 0xF0, 0xFF, 0xFF, 0x1E, 0x00, 0x01, 0xFF, 0xFF, 0xFF, 0xFF, 0x00,
0x03, 0xFF, 0xFC, 0x7F, 0xFF, 0x80, 0x03, 0xFF, 0xC0, 0x07, 0xFF, 0xC0, 0x07, 0xFF, 0x00, 0x01,
0xFF, 0xC0, 0x03, 0xFC, 0x00, 0x00, 0x7F, 0xC0, 0x03, 0xF8, 0x00, 0x00, 0x3F, 0x80, 0x01, 0xF0,
0x00, 0x00, 0x1F, 0x80, 0x01, 0xE0, 0x00, 0x00, 0x0F, 0x00, 0x03, 0xE0, 0x00, 0x00, 0x07, 0x80,
0x03, 0xC0, 0x00, 0x00, 0x07, 0x80, 0x07, 0xC0, 0x00, 0x00, 0x03, 0xC0, 0x07, 0x8C, 0x20, 0xF0,
0x03, 0xC0, 0x0F, 0x8E, 0x33, 0xFC, 0x01, 0xE0, 0x3F, 0x0E, 0x33, 0x0C, 0x01, 0xFC, 0x7F, 0x0F,
0x36, 0x0E, 0x01, 0xFC, 0xFF, 0x0F, 0x36, 0x06, 0x01, 0xFE, 0xFF, 0x0D, 0xB6, 0x06, 0x01, 0xFE,
0xFF, 0x0D, 0xF6, 0x0E, 0x01, 0xFE, 0xFF, 0x0C, 0xF3, 0x0C, 0xE1, 0xFE, 0x7F, 0x0C, 0x73, 0xFC,
0xA1, 0xFE, 0x7F, 0x0C, 0x61, 0xF0, 0x21, 0xFC, 0x1F, 0x80, 0x00, 0x00, 0xC1, 0xF0, 0x07, 0x80,
0x00, 0x00, 0xE3, 0xC0, 0x07, 0x80, 0x00, 0x00, 0x03, 0xC0, 0x03, 0xC0, 0x00, 0x00, 0x07, 0x80,
0x03, 0xE0, 0x00, 0x00, 0x07, 0x80, 0x01, 0xE0, 0x00, 0x00, 0x0F, 0x00, 0x01, 0xF0, 0x00, 0x00,
0x1F, 0x00, 0x03, 0xF8, 0x00, 0x00, 0x3F, 0x80, 0x03, 0xFC, 0x00, 0x00, 0x7F, 0xC0, 0x07, 0xFF,
0x00, 0x00, 0xFF, 0xC0, 0x03, 0xFF, 0xC0, 0x03, 0xFF, 0xC0, 0x03, 0xFF, 0xF8, 0x3F, 0xFF, 0x80,
0x01, 0xFF, 0xFF, 0xFF, 0xFF, 0x00, 0x00, 0xF9, 0xFF, 0xFF, 0x1E, 0x00, 0x00, 0x00, 0x3F, 0xFC,
0x00, 0x00, 0x00, 0x00, 0x1F, 0xF0, 0x00, 0x00, 0x00, 0x00, 0x1F, 0xF0, 0x00, 0x00, 0x00, 0x00,
0x0F, 0xF0, 0x00, 0x00, 0x00, 0x00, 0x0F, 0xE0, 0x00, 0x00, 0x00, 0x00, 0x00, 0x00, 0x00, 0x00
};

#define alcohol_w   48
#define alcohol_h   46
PROGMEM static const unsigned char alcohol_bits [] = {
0x00, 0x00, 0x00, 0x00, 0x00, 0x00, 0x00, 0x00, 0x01, 0x80, 0x00, 0x00, 0x00, 0x00, 0x01, 0x80,
0x00, 0x00, 0x00, 0x00, 0x03, 0xC0, 0x00, 0x00, 0x00, 0x00, 0x03, 0xE0, 0x00, 0x00, 0x00, 0x00,
0x07, 0xF0, 0x00, 0x00, 0x00, 0x00, 0x0F, 0xF0, 0x00, 0x00, 0x00, 0x00, 0x0F, 0xF0, 0x00, 0x00,
0x00, 0x00, 0x1F, 0xF8, 0x00, 0x00, 0x00, 0x00, 0x1F, 0xF8, 0x00, 0x00, 0x00, 0x00, 0x1F, 0xF8,
0x00, 0x00, 0x00, 0x00, 0x1F, 0x78, 0x00, 0x00, 0x00, 0x00, 0x0E, 0xF0, 0x00, 0x00, 0x00, 0x00,
0x0E, 0xF0, 0x00, 0x00, 0x00, 0x00, 0x0F, 0xE0, 0x00, 0x00, 0x00, 0x00, 0x0F, 0xF0, 0x00, 0x00,
0x00, 0x00, 0x0C, 0x30, 0x00, 0x00, 0x00, 0x1C, 0x1F, 0xF8, 0x00, 0x00, 0x00, 0x3C, 0x3F, 0xFC,
0x00, 0x00, 0x00, 0x3F, 0xFF, 0xFC, 0x00, 0x00, 0x00, 0x3F, 0xFF, 0xFC, 0x00, 0x00, 0x00, 0x27,
0xFF, 0xFC, 0x00, 0x00, 0x00, 0x3F, 0xFF, 0xFC, 0x00, 0x00, 0x00, 0x3C, 0x3F, 0xFC, 0x00, 0x00,
0x00, 0x3C, 0x33, 0xCC, 0x00, 0x00, 0x00, 0x00, 0x63, 0xC6, 0x00, 0x00, 0x00, 0x01, 0xC3, 0xC3,
0x00, 0x00, 0x00, 0x03, 0x83, 0xC1, 0xC0, 0x00, 0x00, 0x07, 0x03, 0xC0, 0xC0, 0x00, 0x00, 0x06,
0x03, 0xC0, 0x60, 0x00, 0x00, 0x0C, 0x03, 0xC0, 0x70, 0x00, 0x00, 0x0F, 0xFC, 0x3F, 0xF0, 0x00,
0x00, 0x1F, 0xFC, 0x3F, 0xF8, 0x00, 0x00, 0x1F, 0xFC, 0x3F, 0xF8, 0x00, 0x00, 0x1F, 0xFC, 0x3F,
0xF8, 0x00, 0x00, 0x3F, 0xFC, 0x3C, 0xF8, 0x00, 0x00, 0x3F, 0xFC, 0x3F, 0xF8, 0x00, 0x00, 0x3F,
0xFC, 0x3F, 0xF8, 0x00, 0x00, 0x3F, 0xFC, 0x3F, 0xF8, 0x00, 0x00, 0x1F, 0x3C, 0x3F, 0xF8, 0x00,
0x00, 0x1F, 0xFE, 0x3F, 0xF8, 0x00, 0x00, 0x1F, 0xFF, 0x3F, 0xF8, 0x00, 0x00, 0x0F, 0xFF, 0xFF,
0xF0, 0x00, 0x00, 0x0F, 0xFF, 0xFF, 0xF0, 0x00, 0xFF, 0xFF, 0xFF, 0xFF, 0xFF, 0xFE, 0x00, 0x00,
0x00, 0x00, 0x00, 0x00, 
};

#define weight_w   48
#define weight_h   57
PROGMEM static const unsigned char weight_bits [] = {
0x00, 0x00, 0x00, 0x00, 0x00, 0x00, 0x7F, 0xFF, 0xFF, 0xFF, 0xFF, 0xFC, 0x3F, 0xFF, 0xFF, 0xFF,
0xFF, 0xF8, 0x1F, 0xFF, 0xFF, 0xFF, 0xFF, 0xF0, 0x07, 0xFF, 0xFF, 0xFF, 0xFF, 0xE0, 0x01, 0xFF,
0xFF, 0xFF, 0xFF, 0x80, 0x00, 0x3F, 0xFF, 0xFF, 0xF8, 0x00, 0x00, 0x01, 0xFF, 0xFF, 0x00, 0x00,
0x00, 0x00, 0x7F, 0xFE, 0x00, 0x00, 0x00, 0x00, 0x7F, 0xFE, 0x00, 0x00, 0x00, 0x00, 0x7F, 0xFE,
0x00, 0x00, 0x00, 0x00, 0x7F, 0xFE, 0x00, 0x00, 0x00, 0x00, 0x7F, 0xFE, 0x00, 0x00, 0x07, 0xFF,
0xFF, 0xFF, 0xFF, 0xC0, 0x07, 0xFF, 0xFF, 0xFF, 0xFF, 0xE0, 0x07, 0xFF, 0xFF, 0xFF, 0xFF, 0xE0,
0x0F, 0xFF, 0xFF, 0xFF, 0xFF, 0xE0, 0x0F, 0xFF, 0xFF, 0xFF, 0xFF, 0xE0, 0x0F, 0xFF, 0xFF, 0xFF,
0xFF, 0xE0, 0x0F, 0xFF, 0xFF, 0xFF, 0xFF, 0xE0, 0x0F, 0xFF, 0xE0, 0x07, 0xFF, 0xE0, 0x0F, 0xFF,
0x80, 0x01, 0xFF, 0xE0, 0x0F, 0xFE, 0x01, 0x00, 0xFF, 0xF0, 0x0F, 0xFC, 0x00, 0x00, 0x7F, 0xF0,
0x1F, 0xF8, 0x00, 0x00, 0x3F, 0xF0, 0x1F, 0xF1, 0x00, 0x01, 0x1F, 0xF0, 0x1F, 0xF0, 0x80, 0x00,
0x0F, 0xF0, 0x1F, 0xE0, 0x01, 0x00, 0x0F, 0xF0, 0x1F, 0xE0, 0x01, 0x00, 0x07, 0xF0, 0x1F, 0xC0,
0x01, 0x00, 0x07, 0xF0, 0x1F, 0xC0, 0x01, 0x00, 0x07, 0xF8, 0x1F, 0xC0, 0x01, 0x80, 0x07, 0xF8,
0x3F, 0xC0, 0x01, 0x80, 0x03, 0xF8, 0x3F, 0xCC, 0x03, 0x80, 0x23, 0xF8, 0x3F, 0xC0, 0x01, 0x00,
0x03, 0xF8, 0x3F, 0xC0, 0x00, 0x00, 0x07, 0xF8, 0x3F, 0xC0, 0x00, 0x00, 0x07, 0xF8, 0x3F, 0xC0,
0x00, 0x00, 0x07, 0xFC, 0x3F, 0xE0, 0x00, 0x00, 0x07, 0xFC, 0x7F, 0xE0, 0x00, 0x00, 0x0F, 0xFC,
0x7F, 0xF0, 0x00, 0x00, 0x0F, 0xFC, 0x7F, 0xF1, 0x00, 0x01, 0x1F, 0xFC, 0x7F, 0xF8, 0x00, 0x00,
0x3F, 0xFC, 0x7F, 0xFC, 0x00, 0x00, 0x7F, 0xFC, 0x7F, 0xFE, 0x01, 0x00, 0xFF, 0xFC, 0x7F, 0xFF,
0x00, 0x01, 0xFF, 0xFE, 0x7F, 0xFF, 0xE0, 0x07, 0xFF, 0xFE, 0x7F, 0xFF, 0xFF, 0xFF, 0xFF, 0xFE,
0xFF, 0xFF, 0xFF, 0xFF, 0xFF, 0xFE, 0xFF, 0xFF, 0xFF, 0xFF, 0xFF, 0xFE, 0xFF, 0xFF, 0xFF, 0xFF,
0xFF, 0xFE, 0xFF, 0xFF, 0xFF, 0xFF, 0xFF, 0xFE, 0x7F, 0xFF, 0xFF, 0xFF, 0xFF, 0xFC, 0x1F, 0xC0,
0x00, 0x00, 0x07, 0xF0, 0x1F, 0xC0, 0x00, 0x00, 0x07, 0xF8, 0x1F, 0xC0, 0x00, 0x00, 0x03, 0xF0,
0x00, 0x00, 0x00, 0x00, 0x00, 0x00, 
};

#define geiger_w   48
#define geiger_h   49
PROGMEM static const unsigned char geiger_bits [] = {
0x00, 0x00, 0x00, 0x00, 0x00, 0x00, 0x3F, 0xFF, 0xFF, 0xF0, 0x00, 0x00, 0x7F, 0xFF, 0xFF, 0xF8,
0x00, 0x00, 0x7F, 0xFF, 0xFF, 0xF8, 0x00, 0x00, 0x70, 0x00, 0x00, 0x18, 0x00, 0x00, 0x67, 0xFF,
0xFF, 0xD8, 0x00, 0x00, 0x67, 0x9F, 0x1D, 0xD8, 0x00, 0x00, 0x67, 0x4E, 0x4D, 0xD8, 0x00, 0x3E,
0x66, 0x6E, 0xED, 0xD8, 0x00, 0x3E, 0x66, 0x6E, 0xED, 0xD8, 0x00, 0x00, 0x66, 0x6E, 0xED, 0xD8,
0x00, 0x3E, 0x67, 0x6E, 0xCD, 0xD8, 0x00, 0x3E, 0x67, 0x0B, 0x1D, 0xD8, 0x00, 0x38, 0x67, 0xFF,
0xFF, 0xD8, 0x00, 0x38, 0x60, 0x00, 0x00, 0x18, 0x00, 0x3E, 0x78, 0x00, 0x00, 0x38, 0x00, 0x3C,
0x7F, 0xFF, 0xFF, 0xF8, 0x00, 0x38, 0x7F, 0xFF, 0xFF, 0xF8, 0x00, 0x3E, 0x7F, 0xFF, 0xFF, 0xF8,
0x00, 0x3E, 0x70, 0x3F, 0xF8, 0x38, 0x00, 0x38, 0x60, 0x1F, 0xF0, 0x18, 0x00, 0x3E, 0x67, 0x9F,
0xF7, 0xD8, 0x00, 0x3E, 0x67, 0x9F, 0xF7, 0xD8, 0x00, 0x00, 0x70, 0x3F, 0xF0, 0x18, 0x00, 0x00,
0x7F, 0xFF, 0xFF, 0xF8, 0x00, 0x18, 0x7F, 0xFF, 0xFF, 0xF8, 0x00, 0x18, 0x7F, 0xFF, 0xFF, 0xF8,
0x00, 0x18, 0x7F, 0xFF, 0xFF, 0xF8, 0x00, 0x18, 0x7F, 0xF0, 0x3F, 0xF8, 0x00, 0x18, 0x7F, 0xE7,
0x9F, 0xF8, 0x00, 0x18, 0x7F, 0xF7, 0xDF, 0xFB, 0x80, 0x18, 0x7F, 0xF7, 0xBF, 0xF9, 0xC0, 0x18,
0x7F, 0xF3, 0xBF, 0xF8, 0xE0, 0x18, 0x7F, 0xF8, 0x3F, 0xF8, 0x60, 0x18, 0x7F, 0xF8, 0x7F, 0xF8,
0x60, 0x18, 0x7F, 0xFF, 0xFF, 0xF8, 0x60, 0x18, 0x7F, 0xF8, 0x7F, 0xF8, 0x60, 0x18, 0x7F, 0xFB,
0x3F, 0xF8, 0x60, 0x18, 0x7E, 0x0B, 0x60, 0xF8, 0x60, 0x18, 0x78, 0xEC, 0x5C, 0x78, 0x60, 0x18,
0x7D, 0xF7, 0x9F, 0x78, 0x30, 0x18, 0x7D, 0xF7, 0x9E, 0x78, 0x30, 0x18, 0x7C, 0xEF, 0xCE, 0xF8,
0x38, 0x30, 0x7E, 0xCF, 0xEC, 0xF8, 0x1F, 0xF0, 0x7F, 0x1F, 0xF1, 0xF8, 0x07, 0xC0, 0x7F, 0xBF,
0xFB, 0xF8, 0x00, 0x00, 0x7F, 0xFF, 0xFF, 0xF8, 0x00, 0x00, 0x3F, 0xFF, 0xFF, 0xF8, 0x00, 0x00,
0x00, 0x00, 0x00, 0x00, 0x00, 0x00, 
};

#define pressure_w   48
#define pressure_h   52
PROGMEM static const unsigned char pressure_bits [] = {
0x00, 0x00, 0x00, 0x00, 0x00, 0x00, 0x00, 0x00, 0x00, 0x00, 0x00, 0x00, 0x00, 0x00, 0x01, 0x80,
0x00, 0x00, 0x00, 0x00, 0x1F, 0xF0, 0x00, 0x00, 0x00, 0x00, 0x3C, 0x3C, 0x00, 0x00, 0x00, 0x00,
0xE0, 0x0E, 0x00, 0x00, 0x00, 0x00, 0xC1, 0x03, 0x00, 0x00, 0x00, 0x01, 0x88, 0x03, 0x80, 0x00,
0x00, 0x03, 0x00, 0x01, 0x80, 0x00, 0x00, 0x03, 0x20, 0x00, 0xC0, 0x00, 0x00, 0x02, 0x00, 0xC0,
0xC0, 0x00, 0x00, 0x06, 0x01, 0x80, 0xC0, 0x00, 0x00, 0x06, 0x41, 0x80, 0xC0, 0x00, 0x00, 0x06,
0x01, 0x80, 0xC0, 0x00, 0x00, 0x06, 0x00, 0x00, 0xC0, 0x00, 0x00, 0x03, 0x00, 0x00, 0xC0, 0x00,
0x00, 0x03, 0x00, 0x01, 0x80, 0x00, 0x00, 0x03, 0x80, 0x01, 0x80, 0x00, 0x00, 0x01, 0x80, 0x03,
0x00, 0x00, 0x00, 0x00, 0xC0, 0x07, 0x00, 0x00, 0x00, 0x00, 0x70, 0x0E, 0x00, 0x00, 0x00, 0x00,
0x3F, 0xFC, 0x00, 0x00, 0x00, 0x00, 0x0F, 0xF0, 0x00, 0x00, 0x00, 0x00, 0x07, 0xE0, 0x00, 0x00,
0x00, 0x00, 0x00, 0x00, 0x00, 0x00, 0x00, 0x00, 0xFF, 0xFF, 0x00, 0x00, 0x00, 0x00, 0xFF, 0xFE,
0x00, 0x00, 0x00, 0x00, 0x00, 0x00, 0x00, 0x00, 0x09, 0x00, 0x3F, 0xF8, 0x01, 0x20, 0x1D, 0x80,
0x3F, 0xF8, 0x03, 0xF0, 0x1D, 0x80, 0x3F, 0xF8, 0x03, 0xF0, 0x1D, 0x80, 0x3F, 0xF8, 0x03, 0xF0,
0x1D, 0xBF, 0xFF, 0xFF, 0xFB, 0xF0, 0x1D, 0xBF, 0xFF, 0xFF, 0xFB, 0xF0, 0x1D, 0xBF, 0xFF, 0xFF,
0xFB, 0xF0, 0x1D, 0xBF, 0xFF, 0xFF, 0xFB, 0xF0, 0x1D, 0xBF, 0xFF, 0xFF, 0xFB, 0xF0, 0x1D, 0xBF,
0xFF, 0xFF, 0xFB, 0xF0, 0x1D, 0xBF, 0xFF, 0xFF, 0xFB, 0xF0, 0x1D, 0xBF, 0xFF, 0xFF, 0xFB, 0xF0,
0x1D, 0xBF, 0xFF, 0xFF, 0xFB, 0xF0, 0x1D, 0xBF, 0xFF, 0xFF, 0xFB, 0xF0, 0x1D, 0xBF, 0xFF, 0xFF,
0xFB, 0xF0, 0x1D, 0xBF, 0xFF, 0xFF, 0xFB, 0xF0, 0x1D, 0xBF, 0xFF, 0xFF, 0xFB, 0xF0, 0x1D, 0xBF,
0xFF, 0xFF, 0xFB, 0xF0, 0x1D, 0x80, 0x00, 0x00, 0x03, 0xF0, 0x1D, 0x80, 0x00, 0x00, 0x03, 0xF0,
0x1D, 0x80, 0x00, 0x00, 0x03, 0x30, 0x00, 0x00, 0x00, 0x00, 0x00, 0x00, 0x00, 0x00, 0x00, 0x00,
0x00, 0x00, 0x00, 0x00, 0x00, 0x00, 0x00, 0x00, 
};

#define water_atomization_w   48
#define water_atomization_h   55
PROGMEM static const unsigned char water_atomization_bits [] = {
0x00, 0x00, 0x00, 0x00, 0x00, 0x00, 0x00, 0x00, 0x00, 0x00, 0x00, 0x00, 0x00, 0x00, 0x00, 0x00,
0x00, 0x00, 0x00, 0x00, 0x20, 0x0C, 0x00, 0x00, 0x00, 0x00, 0x20, 0x0C, 0x00, 0x00, 0x00, 0x00,
0x30, 0x06, 0x00, 0x00, 0x00, 0x00, 0x30, 0x06, 0x00, 0x00, 0x00, 0x00, 0x38, 0x07, 0x00, 0x00,
0x00, 0x00, 0x38, 0x07, 0x00, 0x00, 0x00, 0x00, 0x78, 0x0F, 0x00, 0x00, 0x00, 0x00, 0x78, 0x0F,
0x80, 0x00, 0x00, 0x00, 0xF8, 0x0F, 0x82, 0x00, 0x00, 0x01, 0xF8, 0x1F, 0x83, 0x00, 0x00, 0x01,
0xF8, 0x1F, 0x83, 0x00, 0x00, 0x03, 0xF0, 0x3F, 0x83, 0x80, 0x00, 0x07, 0xF0, 0x3F, 0x83, 0x80,
0x00, 0x0F, 0xE0, 0x7F, 0x03, 0xC0, 0x00, 0x1F, 0xC0, 0xFF, 0x03, 0xC0, 0x00, 0x1F, 0xC1, 0xFF,
0x03, 0xC0, 0x00, 0x3F, 0x81, 0xFE, 0x07, 0xC0, 0x00, 0x7F, 0x03, 0xFE, 0x07, 0xC0, 0x00, 0xFE,
0x07, 0xFC, 0x0F, 0xC0, 0x00, 0xFC, 0x0F, 0xF8, 0x0F, 0xC0, 0x01, 0xF8, 0x1F, 0xF8, 0x1F, 0xC0,
0x01, 0xF8, 0x3F, 0xF0, 0x3F, 0xC0, 0x01, 0xF0, 0x7F, 0xE0, 0x3F, 0x80, 0x01, 0xE0, 0x7F, 0xC0,
0x7F, 0x80, 0x01, 0xE0, 0xFF, 0x80, 0xFF, 0x80, 0x01, 0xC1, 0xFF, 0x01, 0xFF, 0x00, 0x01, 0xC1,
0xFE, 0x03, 0xFE, 0x00, 0x01, 0xC3, 0xFC, 0x07, 0xFE, 0x00, 0x01, 0xC3, 0xFC, 0x0F, 0xFC, 0x00,
0x00, 0xC3, 0xF8, 0x1F, 0xF8, 0x00, 0x00, 0xC3, 0xF0, 0x1F, 0xF0, 0x00, 0x00, 0x47, 0xF0, 0x3F,
0xE0, 0x00, 0x00, 0x07, 0xE0, 0x7F, 0xC0, 0x00, 0x00, 0x07, 0xE0, 0x7F, 0x80, 0x00, 0x00, 0x03,
0xC0, 0xFF, 0x80, 0x00, 0x00, 0x03, 0xC0, 0xFF, 0x00, 0x00, 0x00, 0x03, 0xC1, 0xFE, 0x00, 0x00,
0x00, 0x03, 0xC1, 0xFC, 0x00, 0x00, 0x00, 0x01, 0x81, 0xFC, 0x00, 0x00, 0x00, 0x01, 0xC1, 0xF8,
0x00, 0x00, 0x00, 0x00, 0xC1, 0xF8, 0x00, 0x00, 0x00, 0x00, 0xC1, 0xF0, 0x00, 0x00, 0x00, 0x00,
0x41, 0xF0, 0x00, 0x00, 0x00, 0x00, 0x01, 0xE0, 0x00, 0x00, 0x00, 0x00, 0x01, 0xE0, 0x00, 0x00,
0x00, 0x00, 0x00, 0xE0, 0x00, 0x00, 0x00, 0x00, 0x00, 0xE0, 0x00, 0x00, 0x00, 0x00, 0x00, 0x60,
0x00, 0x00, 0x00, 0x00, 0x00, 0x60, 0x00, 0x00, 0x00, 0x00, 0x00, 0x20, 0x00, 0x00, 0x00, 0x00,
0x00, 0x00, 0x00, 0x00, 0x00, 0x00, 0x00, 0x00, 0x00, 0x00, 
};

#define gnss_w   48
#define gnss_h   48
PROGMEM static const unsigned char gnss_bits [] = {
0x00, 0x00, 0x00, 0x00, 0x00, 0x00, 0x00, 0x02, 0x00, 0x00, 0x00, 0x00, 0x00, 0x07, 0x00, 0x00,
0x00, 0x00, 0x00, 0x0F, 0x80, 0x00, 0x00, 0x00, 0x00, 0x1F, 0xC0, 0x00, 0x00, 0x00, 0x00, 0x1F,
0xE0, 0x00, 0x00, 0x00, 0x00, 0x0F, 0xF0, 0x00, 0x00, 0x00, 0x00, 0x07, 0xF8, 0x00, 0x00, 0x00,
0x00, 0x03, 0xFC, 0x00, 0x00, 0x00, 0x00, 0x01, 0xFE, 0x00, 0x00, 0x00, 0x00, 0x00, 0xFF, 0x00,
0x00, 0x00, 0x00, 0x00, 0x7F, 0x9B, 0x00, 0x00, 0x00, 0x00, 0x3F, 0xBD, 0x80, 0x00, 0x00, 0x00,
0x1F, 0x7E, 0xC0, 0x00, 0x00, 0x00, 0x0E, 0xFF, 0x60, 0x00, 0x00, 0x00, 0x01, 0xFF, 0xB0, 0x00,
0x00, 0x00, 0x03, 0xFF, 0xD8, 0x00, 0x00, 0x00, 0x07, 0xFF, 0xEC, 0x00, 0x00, 0x00, 0x07, 0xFF,
0xF0, 0x00, 0x00, 0x00, 0x03, 0xFF, 0xF8, 0x00, 0x00, 0x01, 0xE1, 0xFF, 0xF8, 0x00, 0x00, 0x07,
0xF8, 0xFF, 0xF0, 0x00, 0x00, 0x0F, 0xFF, 0xFF, 0xE0, 0x00, 0x00, 0x08, 0x3F, 0xFF, 0xD8, 0x00,
0x00, 0x08, 0x0F, 0xFF, 0xBC, 0x00, 0x00, 0x18, 0x07, 0xCF, 0x7E, 0x00, 0x00, 0x00, 0x03, 0xC6,
0x7F, 0x00, 0x00, 0x00, 0x01, 0xE0, 0x7F, 0x80, 0x63, 0x0C, 0x30, 0xE0, 0x3F, 0xC0, 0x63, 0x8C,
0x30, 0xF0, 0x1F, 0xE0, 0x63, 0x8E, 0x00, 0x70, 0x0F, 0xF0, 0x71, 0x86, 0x00, 0x70, 0x07, 0xF8,
0x31, 0x87, 0x00, 0x30, 0x03, 0xFC, 0x31, 0xC3, 0xC0, 0x20, 0x01, 0xFE, 0x38, 0xE1, 0xF0, 0x60,
0x00, 0xFC, 0x18, 0x60, 0x77, 0xC0, 0x00, 0x78, 0x1C, 0x70, 0x00, 0x00, 0x00, 0x30, 0x0C, 0x3C,
0x00, 0x00, 0x00, 0x00, 0x0E, 0x1F, 0x00, 0x00, 0x00, 0x00, 0x07, 0x07, 0xF0, 0x00, 0x00, 0x00,
0x03, 0x83, 0xF0, 0x00, 0x00, 0x00, 0x01, 0xC0, 0x30, 0x00, 0x00, 0x00, 0x00, 0xF0, 0x00, 0x00,
0x00, 0x00, 0x00, 0x7C, 0x00, 0x00, 0x00, 0x00, 0x00, 0x1F, 0xC0, 0x00, 0x00, 0x00, 0x00, 0x07,
0xF0, 0x00, 0x00, 0x00, 0x00, 0x00, 0xF0, 0x00, 0x00, 0x00, 0x00, 0x00, 0x00, 0x00, 0x00, 0x00
};

// Create arrays from the declared sensor logo information.
PROGMEM static const unsigned char *sensor_logo_bit[] = {no2_bits, alcohol_bits, weight_bits, geiger_bits, pressure_bits, water_atomization_bits, gnss_bits};
int sensor_logo_w[] = {no2_w, alcohol_w, weight_w, geiger_w, pressure_w, water_atomization_w, gnss_w};
int sensor_logo_h[] = {no2_h, alcohol_h, weight_h, geiger_h, pressure_h, water_atomization_h, gnss_h};

// Home (main) interface logo (icon).
#define home_w   176
#define home_h   142
PROGMEM static const unsigned char home_bits [] = {
0x00, 0x00, 0x00, 0x00, 0x00, 0x00, 0x00, 0x00, 0x00, 0x00, 0x00, 0x00, 0x00, 0x00, 0x00, 0x00,
0x00, 0x00, 0x00, 0x00, 0x00, 0x00, 0x00, 0x00, 0x00, 0x00, 0x00, 0x00, 0x00, 0x00, 0x00, 0x00,
0x00, 0x00, 0x00, 0x00, 0x00, 0x00, 0x00, 0x00, 0x00, 0x00, 0x00, 0x00, 0x00, 0x00, 0x00, 0x00,
0x00, 0x00, 0x00, 0x00, 0x00, 0x00, 0x00, 0x00, 0x00, 0x00, 0x00, 0x00, 0x00, 0x00, 0x00, 0x00,
0x00, 0x00, 0x00, 0x00, 0x00, 0x00, 0x00, 0x00, 0x00, 0x00, 0x00, 0x00, 0xFF, 0xFF, 0x80, 0x00,
0x00, 0x00, 0x00, 0x00, 0x00, 0x00, 0x00, 0x00, 0x00, 0x00, 0x00, 0x00, 0x00, 0x00, 0x00, 0x00,
0x00, 0x0F, 0xFF, 0xFF, 0xF8, 0x00, 0x00, 0x00, 0x00, 0x00, 0x00, 0x00, 0x00, 0x00, 0x00, 0x00,
0x00, 0x00, 0x00, 0x00, 0x00, 0x00, 0x00, 0x7F, 0xFF, 0xFF, 0xFF, 0x00, 0x00, 0x00, 0x00, 0x00,
0x00, 0x00, 0x00, 0x00, 0x00, 0x00, 0x00, 0x00, 0x00, 0x00, 0x00, 0x00, 0x02, 0xFF, 0xFF, 0xFF,
0xFF, 0xA0, 0x00, 0x00, 0x00, 0x00, 0x00, 0x00, 0x00, 0x00, 0x00, 0x00, 0x00, 0x00, 0x00, 0x00,
0x00, 0x00, 0x0F, 0xFF, 0xFF, 0xFF, 0xFF, 0xF8, 0x00, 0x00, 0x00, 0x00, 0x00, 0x00, 0x00, 0x00,
0x00, 0x00, 0x00, 0x00, 0x00, 0x00, 0x00, 0x00, 0x3F, 0xFF, 0xFF, 0xFF, 0xFF, 0xFE, 0x00, 0x00,
0x00, 0x00, 0x00, 0x00, 0x00, 0x00, 0x00, 0x00, 0x00, 0x00, 0x00, 0x00, 0x00, 0x00, 0x7F, 0xFF,
0xFF, 0xFF, 0xFF, 0xFF, 0x00, 0x00, 0x00, 0x00, 0x00, 0x00, 0x00, 0x00, 0x00, 0x00, 0x00, 0x00,
0x00, 0x00, 0x00, 0x00, 0xFF, 0xFF, 0xFF, 0xFF, 0xFF, 0xFF, 0x80, 0x00, 0x00, 0x00, 0x00, 0x00,
0x00, 0x00, 0x00, 0x00, 0x00, 0x00, 0x00, 0x00, 0x00, 0x03, 0xFF, 0xFF, 0xFF, 0xFF, 0xFF, 0xFF,
0xE0, 0x00, 0x00, 0x00, 0x00, 0x00, 0x00, 0x00, 0x00, 0x00, 0x00, 0x00, 0x00, 0x00, 0x00, 0x0F,
0xFF, 0xFF, 0xFF, 0xFF, 0xFF, 0xFF, 0xF8, 0x00, 0x00, 0x00, 0x00, 0x00, 0x00, 0x00, 0x00, 0x00,
0x00, 0x00, 0x00, 0x00, 0x00, 0x0F, 0xFF, 0xFF, 0xFF, 0xFF, 0xFF, 0xFF, 0xF8, 0x00, 0x00, 0x00,
0x00, 0x00, 0x00, 0x00, 0x00, 0x00, 0x00, 0x00, 0x00, 0x00, 0x00, 0x1F, 0xFF, 0xFF, 0xE0, 0x03,
0xFF, 0xFF, 0xFC, 0x00, 0x00, 0x00, 0x00, 0x00, 0x00, 0x00, 0x00, 0x00, 0x00, 0x00, 0x00, 0x00,
0x00, 0x3F, 0xFF, 0xFC, 0x00, 0x00, 0x1F, 0xFF, 0xFE, 0x00, 0x00, 0x00, 0x00, 0x00, 0x00, 0x00,
0x00, 0x00, 0x00, 0x00, 0x00, 0x00, 0x00, 0xFF, 0xFF, 0xF0, 0x00, 0x00, 0x07, 0xFF, 0xFF, 0x80,
0x00, 0x00, 0x00, 0x00, 0x00, 0x00, 0x00, 0x00, 0x00, 0x00, 0x00, 0x00, 0x00, 0xFF, 0xFF, 0xC0,
0x00, 0x00, 0x01, 0xFF, 0xFF, 0x80, 0x00, 0x00, 0x00, 0x00, 0x00, 0x00, 0x00, 0x00, 0x00, 0x00,
0x00, 0x00, 0x01, 0xFF, 0xFF, 0x00, 0x00, 0x00, 0x00, 0x7F, 0xFF, 0xC0, 0x00, 0x00, 0x00, 0x00,
0x00, 0x00, 0x00, 0x00, 0x00, 0x00, 0x00, 0x00, 0x03, 0xFF, 0xFC, 0x00, 0x00, 0x00, 0x00, 0x1F,
0xFF, 0xE0, 0x00, 0x00, 0x00, 0x00, 0x00, 0x00, 0x00, 0x00, 0x00, 0x00, 0x00, 0x00, 0x0F, 0xFF,
0xF0, 0x00, 0x00, 0x00, 0x00, 0x07, 0xFF, 0xF8, 0x00, 0x00, 0x00, 0x00, 0x00, 0x00, 0x00, 0x00,
0x00, 0x00, 0x00, 0x00, 0x0F, 0xFF, 0xF0, 0x00, 0x00, 0x00, 0x00, 0x07, 0xFF, 0xF8, 0x00, 0x00,
0x00, 0x00, 0x00, 0x00, 0x00, 0x00, 0x00, 0x00, 0x00, 0x00, 0x0F, 0xFF, 0xE0, 0x00, 0x00, 0x00,
0x00, 0x03, 0xFF, 0xF8, 0x00, 0x00, 0x00, 0x00, 0x00, 0x00, 0x00, 0x00, 0x00, 0x00, 0x00, 0x00,
0x3F, 0xFF, 0xC0, 0x00, 0x00, 0x00, 0x00, 0x01, 0xFF, 0xFE, 0x00, 0x00, 0x00, 0x00, 0x00, 0x00,
0x00, 0x00, 0x00, 0x00, 0x00, 0x00, 0x3F, 0xFF, 0x80, 0x00, 0x00, 0x00, 0x00, 0x00, 0xFF, 0xFE,
0x00, 0x00, 0x00, 0x00, 0x00, 0x00, 0x00, 0x00, 0x00, 0x00, 0x00, 0x00, 0x3F, 0xFE, 0x00, 0x00,
0x00, 0x00, 0x00, 0x00, 0x3F, 0xFE, 0x00, 0x00, 0x00, 0x00, 0x00, 0x00, 0x00, 0x00, 0x00, 0x00,
0x00, 0x00, 0x7F, 0xFE, 0x00, 0x00, 0x00, 0x00, 0x00, 0x00, 0x3F, 0xFF, 0x00, 0x00, 0x00, 0x00,
0x00, 0x00, 0x00, 0x00, 0x00, 0x00, 0x00, 0x00, 0x7F, 0xFC, 0x00, 0x00, 0x00, 0x00, 0x00, 0x00,
0x1F, 0xFF, 0x00, 0x00, 0x00, 0x00, 0x00, 0x00, 0x00, 0x00, 0x00, 0x00, 0x00, 0x00, 0xFF, 0xFC,
0x00, 0x00, 0x00, 0x00, 0x00, 0x00, 0x1F, 0xFF, 0x80, 0x00, 0x00, 0x00, 0x00, 0x00, 0x00, 0x00,
0x00, 0x00, 0x00, 0x01, 0xFF, 0xF8, 0x00, 0x00, 0x00, 0x00, 0x00, 0x00, 0x0F, 0xFF, 0x80, 0x00,
0x00, 0x00, 0x00, 0x00, 0x00, 0x00, 0x00, 0x00, 0x00, 0x01, 0xFF, 0xF8, 0x00, 0x00, 0x00, 0x00,
0x00, 0x00, 0x0F, 0xFF, 0xC0, 0x00, 0x00, 0x00, 0x00, 0x00, 0x00, 0x00, 0x00, 0x00, 0x00, 0x03,
0xFF, 0xF0, 0x00, 0x00, 0x00, 0x00, 0x00, 0x00, 0x07, 0xFF, 0xE0, 0x00, 0x00, 0x00, 0x00, 0x00,
0x00, 0x00, 0x00, 0x00, 0x00, 0x01, 0xFF, 0xF0, 0x00, 0x00, 0x00, 0x00, 0x00, 0x00, 0x07, 0xFF,
0xC0, 0x00, 0x00, 0x00, 0x00, 0x00, 0x00, 0x00, 0x00, 0x00, 0x00, 0x03, 0xFF, 0xE0, 0x00, 0x00,
0x00, 0x00, 0x00, 0x00, 0x03, 0xFF, 0xE0, 0x00, 0x00, 0x00, 0x00, 0x00, 0x00, 0x00, 0x00, 0x00,
0x00, 0x07, 0xFF, 0xE0, 0x00, 0x00, 0x00, 0x00, 0x00, 0x00, 0x03, 0xFF, 0xF0, 0x00, 0x00, 0x00,
0x00, 0x00, 0x00, 0x00, 0x00, 0x00, 0x00, 0x07, 0xFF, 0xC0, 0x00, 0x00, 0x00, 0x00, 0x00, 0x00,
0x01, 0xFF, 0xF0, 0x00, 0x00, 0x00, 0x00, 0x00, 0x00, 0x00, 0x00, 0x00, 0x00, 0x07, 0xFF, 0xC0,
0x00, 0x00, 0x00, 0x00, 0x00, 0x00, 0x01, 0xFF, 0xF0, 0x00, 0x00, 0x00, 0x00, 0x00, 0x00, 0x00,
0x00, 0x00, 0x00, 0x07, 0xFF, 0xC0, 0x00, 0x00, 0x00, 0x00, 0x00, 0x00, 0x01, 0xFF, 0xF0, 0x00,
0x00, 0x00, 0x00, 0x00, 0x00, 0x00, 0x00, 0x00, 0x00, 0x0F, 0xFF, 0xC0, 0x00, 0x00, 0x00, 0x00,
0x00, 0x00, 0x01, 0xFF, 0xF8, 0x00, 0x00, 0x00, 0x00, 0x00, 0x00, 0x00, 0x00, 0x00, 0x00, 0x0F,
0xFF, 0x80, 0x00, 0x00, 0x00, 0x00, 0x00, 0x00, 0x00, 0xFF, 0xF8, 0x00, 0x00, 0x00, 0x00, 0x00,
0x00, 0x00, 0x00, 0x00, 0x00, 0x0F, 0xFF, 0x80, 0x00, 0x00, 0x00, 0x00, 0x00, 0x00, 0x00, 0xFF,
0xF8, 0x00, 0x00, 0x00, 0x00, 0x00, 0x00, 0x00, 0x00, 0x00, 0x00, 0x0F, 0xFF, 0x80, 0x00, 0x00,
0x00, 0x00, 0x00, 0x00, 0x00, 0xFF, 0xF8, 0x00, 0x00, 0x00, 0x00, 0x00, 0x00, 0x00, 0x00, 0x00,
0x00, 0x0F, 0xFF, 0x80, 0x00, 0x00, 0x00, 0x00, 0x00, 0x00, 0x00, 0xFF, 0xF8, 0x00, 0x00, 0x00,
0x00, 0x00, 0x00, 0x00, 0x00, 0x00, 0x00, 0x0F, 0xFF, 0x80, 0x00, 0x00, 0x00, 0x00, 0x00, 0x00,
0x00, 0xFF, 0xF8, 0x00, 0x00, 0x00, 0x00, 0x00, 0x00, 0x00, 0x00, 0x00, 0x00, 0x0F, 0xFF, 0x80,
0x00, 0x00, 0x00, 0x00, 0x00, 0x00, 0x00, 0xFF, 0xF8, 0x00, 0x00, 0x00, 0x00, 0x00, 0x00, 0x00,
0x00, 0x00, 0x00, 0x0F, 0xFF, 0x80, 0x00, 0x00, 0x00, 0x00, 0x00, 0x00, 0x00, 0x7F, 0xF8, 0x00,
0x00, 0x00, 0x00, 0x00, 0x00, 0x00, 0x00, 0x00, 0x00, 0x0F, 0xFF, 0x00, 0x00, 0x00, 0x00, 0x00,
0x00, 0x00, 0x00, 0x7F, 0xF8, 0x00, 0x00, 0x00, 0x00, 0x00, 0x00, 0x00, 0x00, 0x00, 0x00, 0x0F,
0xFF, 0x00, 0x00, 0x00, 0x00, 0x00, 0x00, 0x00, 0x00, 0x7F, 0xF8, 0x00, 0x00, 0x00, 0x00, 0x00,
0x00, 0x00, 0x00, 0x00, 0x00, 0x0F, 0xFF, 0x00, 0x00, 0x00, 0x00, 0x00, 0x00, 0x00, 0x00, 0x7F,
0xF8, 0x00, 0x00, 0x00, 0x00, 0x00, 0x00, 0x00, 0x00, 0x00, 0x00, 0x0F, 0xFF, 0x00, 0x00, 0x00,
0x00, 0x00, 0x00, 0x00, 0x00, 0x7F, 0xF8, 0x00, 0x00, 0x00, 0x00, 0x00, 0x00, 0x00, 0x00, 0x00,
0x00, 0x0F, 0xFF, 0x80, 0x00, 0x00, 0x00, 0x00, 0x00, 0x00, 0x00, 0x7F, 0xF8, 0x00, 0x00, 0x00,
0x00, 0x00, 0x00, 0x00, 0x00, 0x00, 0x00, 0x0F, 0xFF, 0x80, 0x00, 0x00, 0x00, 0x00, 0x00, 0x00,
0x00, 0xFF, 0xF8, 0x00, 0x00, 0x00, 0x00, 0x00, 0x00, 0x00, 0x00, 0x00, 0x00, 0x0F, 0xFF, 0x80,
0x00, 0x00, 0x00, 0x00, 0x00, 0x00, 0x00, 0xFF, 0xF8, 0x00, 0x00, 0x00, 0x00, 0x00, 0x00, 0x00,
0x00, 0x00, 0x00, 0x0F, 0xFF, 0x80, 0x00, 0x00, 0x00, 0x00, 0x00, 0x00, 0x00, 0xFF, 0xF8, 0x00,
0x00, 0x00, 0x00, 0x00, 0x00, 0x00, 0x00, 0x00, 0x00, 0x0F, 0xFF, 0x80, 0x00, 0x00, 0x00, 0x00,
0x00, 0x00, 0x00, 0xFF, 0xF8, 0x00, 0x00, 0x00, 0x00, 0x00, 0x00, 0x00, 0x00, 0x00, 0x00, 0x0F,
0xFF, 0x80, 0x00, 0x00, 0x00, 0x00, 0x00, 0x00, 0x00, 0xFF, 0xF8, 0x00, 0x00, 0x00, 0x00, 0x00,
0x00, 0x00, 0x00, 0x00, 0x00, 0x0F, 0xFF, 0x80, 0x00, 0x00, 0x00, 0x00, 0x00, 0x00, 0x00, 0xFF,
0xF8, 0x00, 0x00, 0x00, 0x00, 0x00, 0x00, 0x00, 0x00, 0x00, 0x00, 0x07, 0xFF, 0xC0, 0x00, 0x00,
0x00, 0x00, 0x00, 0x00, 0x01, 0xFF, 0xF0, 0x00, 0x00, 0x00, 0x00, 0x00, 0x00, 0x00, 0x00, 0x00,
0x00, 0x07, 0xFF, 0x80, 0x00, 0x00, 0x00, 0x3F, 0xF0, 0x00, 0x01, 0xFF, 0xF0, 0x00, 0x00, 0x00,
0x00, 0x00, 0x00, 0x00, 0x00, 0x00, 0x00, 0x07, 0xFF, 0xC0, 0x00, 0x00, 0x00, 0x3F, 0xF8, 0x00,
0x01, 0xFF, 0xF0, 0x00, 0x00, 0x00, 0x00, 0x00, 0x00, 0x00, 0x00, 0x00, 0x00, 0x07, 0xFF, 0xE0,
0x00, 0x00, 0x00, 0x7F, 0xFC, 0x00, 0x03, 0xFF, 0xF0, 0x00, 0x00, 0x00, 0x00, 0x00, 0x00, 0x00,
0x00, 0x00, 0x00, 0x03, 0xFF, 0xC0, 0x00, 0x00, 0x00, 0x3F, 0xFE, 0x00, 0x01, 0xFF, 0xE0, 0x00,
0x00, 0x00, 0x00, 0x00, 0x00, 0x00, 0x00, 0x00, 0x00, 0x03, 0xFF, 0xE0, 0x00, 0x00, 0x00, 0x3F,
0xFE, 0x00, 0x03, 0xFF, 0xE0, 0x00, 0x00, 0x00, 0x00, 0x00, 0x00, 0x00, 0x00, 0x00, 0x00, 0x03,
0xFF, 0xF0, 0x00, 0x00, 0x00, 0x1F, 0xFF, 0x00, 0x07, 0xFF, 0xE0, 0x00, 0x00, 0x00, 0x00, 0x00,
0x00, 0x00, 0x00, 0x00, 0x00, 0x01, 0xFF, 0xF0, 0x00, 0x00, 0x00, 0x0F, 0xFE, 0x00, 0x07, 0xFF,
0xC0, 0x00, 0x00, 0x00, 0x00, 0x00, 0x00, 0x00, 0x00, 0x00, 0x00, 0x00, 0xFF, 0xF0, 0x00, 0x00,
0x00, 0x1F, 0xFF, 0x00, 0x07, 0xFF, 0x80, 0x00, 0x00, 0x00, 0x00, 0x00, 0x00, 0x00, 0x00, 0x00,
0x00, 0x01, 0xFF, 0xF8, 0x00, 0x00, 0x00, 0x0F, 0xFF, 0x80, 0x0F, 0xFF, 0xC0, 0x00, 0x00, 0x00,
0x00, 0x00, 0x00, 0x00, 0x00, 0x00, 0x00, 0x00, 0xFF, 0xFC, 0x00, 0x00, 0x00, 0x07, 0xFF, 0x80,
0x1F, 0xFF, 0x80, 0x00, 0x00, 0x00, 0x00, 0x00, 0x00, 0x00, 0x00, 0x00, 0x00, 0x00, 0xFF, 0xFE,
0x00, 0x00, 0x00, 0x07, 0xFF, 0x80, 0x3F, 0xFF, 0x80, 0x00, 0x00, 0x00, 0x00, 0x00, 0x00, 0x00,
0x00, 0x00, 0x00, 0x00, 0x3F, 0xFE, 0x00, 0x00, 0x00, 0x07, 0xFF, 0x80, 0x3F, 0xFF, 0x00, 0x00,
0x00, 0x00, 0x00, 0x00, 0x00, 0x00, 0x00, 0x00, 0x00, 0x00, 0x3F, 0xFF, 0x00, 0x00, 0x00, 0x07,
0xFF, 0xC0, 0x7F, 0xFE, 0x00, 0x00, 0x00, 0x00, 0x00, 0x00, 0x00, 0x00, 0x00, 0x00, 0x00, 0x00,
0x1F, 0xFF, 0x80, 0x00, 0x00, 0x03, 0xFF, 0xE0, 0xFF, 0xFC, 0x00, 0x00, 0x00, 0x00, 0x00, 0x00,
0x00, 0x00, 0x00, 0x00, 0x00, 0x00, 0x1F, 0xFF, 0xC0, 0x00, 0x00, 0x01, 0xFF, 0xE0, 0xFF, 0xFC,
0x00, 0x00, 0x00, 0x00, 0x00, 0x00, 0x00, 0x00, 0x00, 0x00, 0x00, 0x00, 0x1F, 0xFF, 0xE0, 0x00,
0x00, 0x01, 0xFF, 0xE3, 0xFF, 0xFC, 0x00, 0x00, 0x00, 0x00, 0x00, 0x00, 0x00, 0x00, 0x00, 0x00,
0x00, 0x00, 0x07, 0xFF, 0xF0, 0x00, 0x00, 0x01, 0xFF, 0xFF, 0xFF, 0xF0, 0x00, 0x00, 0x00, 0x00,
0x00, 0x00, 0x00, 0x00, 0x00, 0x00, 0x00, 0x00, 0x03, 0xFF, 0xFC, 0x00, 0x00, 0x01, 0xFF, 0xFF,
0xFF, 0xF0, 0x00, 0x00, 0x00, 0x00, 0x00, 0x00, 0x00, 0x00, 0x00, 0x00, 0x00, 0x00, 0x03, 0xFF,
0xFC, 0x00, 0x00, 0x00, 0xFF, 0xFF, 0xFF, 0xE0, 0x00, 0x00, 0x00, 0x00, 0x00, 0x00, 0x00, 0x00,
0x00, 0x00, 0x00, 0x00, 0x01, 0xFF, 0xFF, 0x80, 0x00, 0x00, 0x7F, 0xFF, 0xFF, 0xC0, 0x00, 0x00,
0x00, 0x00, 0x00, 0x00, 0x00, 0x00, 0x00, 0x00, 0x00, 0x00, 0x01, 0xFF, 0xFF, 0xE0, 0x00, 0x00,
0x7F, 0xFF, 0xFF, 0xC0, 0x00, 0x00, 0x00, 0x00, 0x00, 0x00, 0x00, 0x00, 0x00, 0x00, 0x00, 0x00,
0x00, 0xFF, 0xFF, 0xF8, 0x00, 0x00, 0x7F, 0xFF, 0xFF, 0x80, 0x00, 0x00, 0x00, 0x00, 0x00, 0x00,
0x00, 0x00, 0x00, 0x00, 0x00, 0x00, 0x00, 0x7F, 0xFF, 0xFF, 0x00, 0x00, 0x7F, 0xFF, 0xFF, 0x00,
0x00, 0x00, 0x00, 0x00, 0x00, 0x00, 0x00, 0x00, 0x00, 0x00, 0x00, 0x00, 0x00, 0x1F, 0xFF, 0xFF,
0xFF, 0xFF, 0xFF, 0xFF, 0xFC, 0x00, 0x00, 0x00, 0x00, 0x00, 0x00, 0x00, 0x00, 0x00, 0x00, 0x00,
0x00, 0x00, 0x00, 0x0F, 0xFF, 0xFF, 0xFF, 0xFF, 0xFF, 0xFF, 0xF8, 0x00, 0x00, 0x00, 0x00, 0x00,
0x00, 0x00, 0x00, 0x00, 0x00, 0x00, 0x00, 0x00, 0x00, 0x03, 0xFF, 0xFF, 0xFF, 0xFF, 0xFF, 0xFF,
0xE0, 0x00, 0x00, 0x00, 0x00, 0x00, 0x00, 0x00, 0x00, 0x00, 0x00, 0x00, 0x00, 0x00, 0x00, 0x03,
0xFF, 0xFF, 0xFF, 0xFF, 0xFF, 0xFF, 0xE0, 0x00, 0x00, 0x00, 0x00, 0x00, 0x00, 0x00, 0x00, 0x00,
0x00, 0x00, 0x00, 0x00, 0x00, 0x00, 0x7F, 0xFF, 0xFF, 0xFF, 0xFF, 0xFF, 0x80, 0x00, 0x00, 0x00,
0x00, 0x00, 0x00, 0x00, 0x00, 0x00, 0x00, 0x00, 0x00, 0x00, 0x00, 0x00, 0x3F, 0xFF, 0xFF, 0xFF,
0xFF, 0xFF, 0x80, 0x00, 0x00, 0x00, 0x00, 0x00, 0x00, 0x00, 0x00, 0x00, 0x00, 0x00, 0x00, 0x00,
0x00, 0x00, 0x1F, 0xFF, 0xFF, 0xFF, 0xFF, 0xFF, 0x80, 0x00, 0x00, 0x00, 0x00, 0x00, 0x00, 0x00,
0x00, 0x00, 0x00, 0x00, 0x00, 0x00, 0x00, 0x00, 0x05, 0xFF, 0xFF, 0xFF, 0xFF, 0xFF, 0x80, 0x00,
0x00, 0x00, 0x00, 0x00, 0x00, 0x00, 0x00, 0x00, 0x00, 0x00, 0x00, 0x00, 0x00, 0x00, 0x00, 0xFF,
0xFF, 0xFF, 0xFF, 0xFF, 0xC0, 0x00, 0x00, 0x00, 0x00, 0x00, 0x00, 0x00, 0x00, 0x00, 0x00, 0x00,
0x00, 0x00, 0x00, 0x00, 0x00, 0x1F, 0xFF, 0xFF, 0xFF, 0xFF, 0xC0, 0x00, 0x00, 0x00, 0x00, 0x00,
0x00, 0x00, 0x00, 0x00, 0x00, 0x00, 0x00, 0x00, 0x00, 0x00, 0x00, 0x03, 0xFF, 0xFF, 0xC3, 0xFF,
0xE0, 0x00, 0x00, 0x00, 0x00, 0x00, 0x00, 0x00, 0x00, 0x00, 0x00, 0x00, 0x00, 0x00, 0x00, 0x00,
0x00, 0x00, 0x03, 0xE0, 0x03, 0xFF, 0xC0, 0x00, 0x00, 0x00, 0x00, 0x00, 0x00, 0x00, 0x00, 0x00,
0x00, 0x00, 0x00, 0x00, 0x00, 0x00, 0x00, 0x00, 0x00, 0x00, 0x03, 0xFF, 0xE0, 0x00, 0x00, 0x00,
0x00, 0x00, 0x00, 0x00, 0x00, 0x00, 0x00, 0x00, 0x00, 0x00, 0x00, 0x00, 0x00, 0x00, 0x00, 0x00,
0x01, 0xFF, 0xF0, 0x00, 0x00, 0x00, 0x00, 0x00, 0x00, 0x00, 0x00, 0x00, 0x00, 0x00, 0x00, 0x00,
0x00, 0x00, 0x00, 0x00, 0x00, 0x00, 0x00, 0xFF, 0xF0, 0x00, 0x00, 0x00, 0x00, 0x00, 0x00, 0x00,
0x00, 0x00, 0x00, 0x00, 0x00, 0x00, 0x00, 0x00, 0x00, 0x00, 0x00, 0x00, 0x01, 0xFF, 0xF0, 0x00,
0x00, 0x00, 0x00, 0x00, 0x00, 0x00, 0x00, 0x00, 0x00, 0x00, 0x00, 0x00, 0x00, 0x00, 0x00, 0x00,
0x00, 0x00, 0x00, 0xFF, 0xF8, 0x00, 0x00, 0x00, 0x00, 0x00, 0x00, 0x00, 0x00, 0x00, 0x00, 0x00,
0x00, 0x00, 0x00, 0x00, 0x00, 0x00, 0x00, 0x00, 0x00, 0xFF, 0xF8, 0x00, 0x00, 0x00, 0x00, 0x00,
0x00, 0x00, 0x00, 0x00, 0x00, 0x00, 0x00, 0x00, 0x00, 0x00, 0x00, 0x00, 0x00, 0x00, 0x00, 0x7F,
0xFC, 0x00, 0x00, 0x00, 0x00, 0x00, 0x00, 0x00, 0x00, 0x00, 0x00, 0x00, 0x00, 0x00, 0x00, 0x00,
0x00, 0x00, 0x00, 0x00, 0x00, 0x3F, 0xF8, 0x00, 0x00, 0x00, 0x00, 0x00, 0x00, 0x00, 0x00, 0x00,
0x00, 0x00, 0x00, 0x00, 0x00, 0x00, 0x00, 0x00, 0x00, 0x00, 0x00, 0x7F, 0xFC, 0x00, 0x00, 0x00,
0x00, 0x00, 0x00, 0x00, 0x00, 0x00, 0x00, 0x00, 0x00, 0x00, 0x00, 0x00, 0x00, 0x00, 0x00, 0x00,
0x00, 0x3F, 0xFE, 0x00, 0x00, 0x00, 0x00, 0x00, 0x00, 0x00, 0x00, 0x00, 0x00, 0x00, 0x00, 0x00,
0x00, 0x00, 0x00, 0x00, 0x00, 0x00, 0x00, 0x1F, 0xFE, 0x00, 0x00, 0x00, 0x00, 0x00, 0x00, 0x00,
0x00, 0x00, 0x00, 0x00, 0x00, 0x00, 0x00, 0x00, 0x00, 0x00, 0x00, 0x00, 0x00, 0x1F, 0xFC, 0x00,
0x00, 0x00, 0x00, 0x00, 0x00, 0x00, 0x00, 0x00, 0x00, 0x00, 0x00, 0x00, 0x00, 0x00, 0x00, 0x00,
0x00, 0x00, 0x00, 0x0F, 0xFC, 0x00, 0x00, 0x00, 0x00, 0x00, 0x00, 0x00, 0x00, 0x00, 0x00, 0x00,
0x00, 0x00, 0x00, 0x00, 0x00, 0x00, 0x00, 0x00, 0x00, 0x00, 0x00, 0x00, 0x00, 0x00, 0x00, 0x00,
0x00, 0x00, 0x00, 0x00, 0x00, 0x00, 0x00, 0x00, 0x00, 0x00, 0x00, 0x00, 0x00, 0x00, 0x00, 0x00,
0x00, 0x00, 0x00, 0x00, 0x00, 0x00, 0x00, 0x00, 0x00, 0x00, 0x00, 0x00, 0x00, 0x00, 0x00, 0x00,
0x00, 0x00, 0x00, 0x00, 0x00, 0x00, 0x00, 0x00, 0x00, 0x00, 0x00, 0x00, 0x00, 0x00, 0x00, 0x00,
0x00, 0x00, 0x00, 0x00, 0x00, 0x00, 0x00, 0x00, 0x00, 0x00, 0x00, 0x00, 0x00, 0x00, 0x00, 0x00,
0x00, 0x00, 0x00, 0x00, 0x00, 0x03, 0xFE, 0x00, 0x00, 0x00, 0x00, 0x00, 0x00, 0x00, 0x00, 0x00,
0x00, 0x00, 0x00, 0x00, 0x00, 0x00, 0x00, 0x00, 0x00, 0x00, 0x00, 0x0F, 0xFF, 0x00, 0x00, 0x00,
0x00, 0x00, 0x00, 0x0E, 0x00, 0x00, 0x00, 0x00, 0x00, 0x00, 0x00, 0x00, 0x00, 0x00, 0x00, 0x00,
0x00, 0x7C, 0x07, 0x80, 0x00, 0x00, 0x00, 0x00, 0x00, 0x0E, 0x00, 0x00, 0x00, 0x00, 0x00, 0x00,
0x00, 0x00, 0x00, 0x00, 0x00, 0x00, 0x00, 0x70, 0x01, 0xE0, 0x00, 0x00, 0x00, 0x00, 0x00, 0x0E,
0x00, 0x00, 0x00, 0x00, 0x00, 0x00, 0x00, 0x00, 0x00, 0x00, 0x00, 0x00, 0x01, 0xE0, 0x00, 0xE0,
0x00, 0x00, 0x00, 0x00, 0x00, 0x0E, 0x00, 0x00, 0x00, 0x00, 0x00, 0x00, 0x00, 0x00, 0x00, 0x00,
0x00, 0x00, 0x01, 0xC0, 0x00, 0x70, 0x00, 0x00, 0x00, 0x00, 0x00, 0x0E, 0x00, 0x00, 0x00, 0x00,
0x00, 0x00, 0x00, 0x00, 0x00, 0x00, 0x00, 0x00, 0x01, 0xC0, 0x00, 0x38, 0x00, 0x00, 0x00, 0x00,
0x00, 0x0E, 0x00, 0x00, 0x00, 0x00, 0x00, 0x00, 0x00, 0x00, 0x00, 0x00, 0x00, 0x00, 0x03, 0x80,
0x00, 0x1C, 0x00, 0x00, 0x00, 0x00, 0x00, 0x0E, 0x00, 0x00, 0x00, 0x00, 0x00, 0x00, 0x00, 0x00,
0x00, 0x00, 0x00, 0x00, 0x07, 0x80, 0x00, 0x1C, 0x10, 0x01, 0x80, 0x0F, 0x8C, 0x0E, 0x01, 0xFC,
0x00, 0xFC, 0x00, 0x08, 0x00, 0x40, 0x07, 0x80, 0x18, 0x00, 0x07, 0x00, 0x00, 0x1C, 0x30, 0x01,
0x80, 0x3F, 0xEC, 0x0E, 0x03, 0xFE, 0x01, 0xFE, 0x00, 0x3C, 0x00, 0xE0, 0x03, 0x00, 0x1C, 0x00,
0x07, 0x00, 0x00, 0x1E, 0x38, 0x01, 0xC0, 0x78, 0xFE, 0x0E, 0x0F, 0x86, 0x07, 0x87, 0x80, 0x3E,
0x01, 0xF0, 0x0F, 0x80, 0x3E, 0x00, 0x07, 0x00, 0x00, 0x0E, 0x38, 0x01, 0xC0, 0xE0, 0x3E, 0x0E,
0x0E, 0x00, 0x0E, 0x01, 0x80, 0x7E, 0x01, 0xF8, 0x07, 0xC0, 0x7E, 0x00, 0x07, 0x00, 0x00, 0x0E,
0x38, 0x01, 0xC1, 0xC0, 0x1E, 0x0E, 0x0C, 0x00, 0x0C, 0x00, 0xE0, 0x3F, 0x01, 0xF0, 0x0F, 0xC0,
0x3E, 0x00, 0x07, 0x00, 0x00, 0x0E, 0x38, 0x01, 0xC3, 0x80, 0x0E, 0x0E, 0x1C, 0x00, 0x1C, 0x00,
0xE0, 0x66, 0x03, 0x98, 0x1C, 0xE0, 0x67, 0x00, 0x07, 0x00, 0x00, 0x1E, 0x38, 0x01, 0xC3, 0x80,
0x0E, 0x0E, 0x38, 0x00, 0x38, 0x00, 0x60, 0xE3, 0x03, 0x1C, 0x0C, 0xC0, 0xE7, 0x00, 0x07, 0x00,
0x00, 0x1C, 0x38, 0x01, 0xC3, 0x80, 0x0E, 0x0E, 0x38, 0x00, 0x38, 0x00, 0x70, 0xE1, 0x86, 0x1C,
0x18, 0x60, 0xC3, 0x80, 0x03, 0x80, 0x1C, 0x18, 0x38, 0x01, 0xC3, 0x00, 0x0E, 0x0E, 0x38, 0x00,
0x38, 0x00, 0x70, 0xC3, 0x83, 0x0C, 0x38, 0x30, 0xC3, 0x00, 0x03, 0x80, 0x18, 0x3C, 0x38, 0x01,
0xC3, 0x80, 0x0E, 0x0E, 0x38, 0x00, 0x38, 0x00, 0x71, 0x81, 0x86, 0x06, 0x30, 0x71, 0xC1, 0x80,
0x03, 0xC0, 0x1C, 0x38, 0x38, 0x01, 0xC3, 0x80, 0x0E, 0x0E, 0x38, 0x00, 0x38, 0x00, 0x61, 0xC1,
0x8E, 0x0E, 0x30, 0x31, 0x81, 0xC0, 0x00, 0xC0, 0x0E, 0x78, 0x38, 0x01, 0xC1, 0x80, 0x0E, 0x0E,
0x1C, 0x00, 0x1C, 0x00, 0xE3, 0x80, 0xCC, 0x06, 0x70, 0x19, 0x01, 0xC0, 0x00, 0xE0, 0x0F, 0xE0,
0x38, 0x01, 0xC1, 0xC0, 0x1E, 0x0E, 0x0C, 0x00, 0x0C, 0x00, 0xE1, 0x80, 0xFC, 0x07, 0xE0, 0x3F,
0x80, 0xE0, 0x00, 0x78, 0x07, 0xC0, 0x1C, 0x03, 0xC0, 0xE0, 0x3E, 0x0E, 0x0E, 0x00, 0x0E, 0x01,
0x83, 0x00, 0xFC, 0x03, 0xC0, 0x1F, 0x00, 0x40, 0x00, 0x1E, 0x0F, 0xC0, 0x0E, 0x07, 0xC0, 0x70,
0xFE, 0x0E, 0x0F, 0x86, 0x07, 0x87, 0x87, 0x00, 0x78, 0x03, 0xE0, 0x1F, 0x00, 0xE0, 0x00, 0x1F,
0xFF, 0x80, 0x07, 0xFD, 0xC0, 0x3F, 0xEE, 0x06, 0x07, 0xFE, 0x01, 0xFE, 0x07, 0x00, 0x30, 0x03,
0xC0, 0x0E, 0x00, 0x70, 0x00, 0x07, 0xFF, 0x80, 0x01, 0xE1, 0x00, 0x0F, 0x08, 0x06, 0x01, 0x7A,
0x01, 0x78, 0x08, 0x00, 0x00, 0x00, 0x80, 0x04, 0x00, 0x20, 0x00, 0x00, 0x03, 0x80, 0x00, 0x00,
0x00, 0x00, 0x00, 0x00, 0x00, 0x00, 0x00, 0x00, 0x00, 0x00, 0x00, 0x00, 0x00, 0x00, 0x00, 0x00,
0x00, 0x00, 0x03, 0x80, 0x00, 0x00, 0x00, 0x00, 0x00, 0x00, 0x00, 0x00, 0x00, 0x00, 0x00, 0x00,
0x00, 0x00, 0x00, 0x00, 0x00, 0x00, 0x00, 0x00, 0x01, 0xC0, 0x00, 0x00, 0x00, 0x00, 0x00, 0x00,
0x00, 0x00, 0x00, 0x00, 0x00, 0x00, 0x00, 0x00, 0x00, 0x00, 0x00, 0x00, 0x00, 0x00, 0x00, 0x80,
0x00, 0x00, 0x00, 0x00, 0x00, 0x00, 0x00, 0x00, 0x00, 0x00, 0x00, 0x00, 0x00, 0x00, 0x00, 0x00,
0x00, 0x00, 0x00, 0x00, 0x00, 0x00, 0x00, 0x00, 0x00, 0x00, 0x00, 0x00, 0x00, 0x00, 0x00, 0x00,
0x00, 0x00, 0x00, 0x00, 0x00, 0x00, 0x00, 0x00, 0x00, 0x00, 0x00, 0x00, 0x00, 0x00, 0x00, 0x00,
0x00, 0x00, 0x00, 0x00, 0x00, 0x00, 0x00, 0x00, 0x00, 0x00, 0x00, 0x00, 0x00, 0x00, 0x00, 0x00,
0x00, 0x00, 0x00, 0x00, 0x00, 0x00, 0x00, 0x00, 0x00, 0x00, 0x00, 0x00, 0x00, 0x00, 0x00, 0x00,
0x00, 0x00, 0x00, 0x00, 
};

// Fingerprint task interface logo (icon).
#define fingerprint_w   120
#define fingerprint_h   158
PROGMEM static const unsigned char fingerprint_bits [] = {
0x00, 0x00, 0x00, 0x00, 0x00, 0x00, 0x00, 0x7F, 0x80, 0x00, 0x00, 0x00, 0x00, 0x00, 0x00, 0x00,
0x00, 0x00, 0x00, 0x00, 0x00, 0x0F, 0xFF, 0xE0, 0x00, 0x00, 0x00, 0x00, 0x00, 0x00, 0x00, 0x00,
0x00, 0x00, 0x00, 0x00, 0xFF, 0xFF, 0xC3, 0x80, 0x00, 0x00, 0x00, 0x00, 0x00, 0x00, 0x00, 0x00,
0x00, 0x00, 0x07, 0xFF, 0xC0, 0x07, 0xF8, 0x00, 0x00, 0x00, 0x00, 0x00, 0x00, 0x00, 0x00, 0x00,
0x00, 0x3F, 0xF8, 0x00, 0x03, 0xFF, 0x80, 0x00, 0x00, 0x00, 0x00, 0x00, 0x00, 0x00, 0x00, 0x01,
0xFF, 0x80, 0x00, 0x00, 0xFF, 0xE0, 0x00, 0x00, 0x00, 0x00, 0x00, 0x00, 0x00, 0x00, 0x0F, 0xFC,
0x01, 0xFF, 0xF0, 0x0F, 0xF0, 0x00, 0x00, 0x00, 0x00, 0x00, 0x00, 0x00, 0x00, 0x1F, 0xE0, 0x3F,
0xFF, 0xFF, 0x80, 0xF0, 0x00, 0x00, 0x00, 0x00, 0x00, 0x00, 0x00, 0x00, 0x3F, 0x03, 0xFF, 0xFF,
0xFF, 0xF8, 0x00, 0x00, 0x00, 0x00, 0x00, 0x00, 0x00, 0x00, 0x00, 0x10, 0x1F, 0xFF, 0x00, 0x0F,
0xFF, 0x80, 0x00, 0x00, 0x00, 0x00, 0x00, 0x00, 0x00, 0x00, 0x01, 0xFF, 0xE0, 0x00, 0xC1, 0xFF,
0xF0, 0x00, 0x00, 0x00, 0x00, 0x00, 0x00, 0x00, 0x00, 0x0F, 0xFE, 0x00, 0xFF, 0xF8, 0x1F, 0xFF,
0x00, 0x00, 0x00, 0x00, 0x00, 0x00, 0x00, 0x00, 0x7F, 0xE0, 0x1F, 0xFF, 0xF8, 0x01, 0xFF, 0xE0,
0x00, 0x00, 0x00, 0x00, 0x00, 0x00, 0x03, 0xFF, 0x01, 0xFF, 0xFF, 0x80, 0x00, 0x1F, 0xF8, 0x00,
0x00, 0x00, 0x00, 0x00, 0x00, 0x0F, 0xF8, 0x0F, 0xFE, 0x00, 0x00, 0x00, 0x01, 0xFC, 0x00, 0x00,
0x00, 0x00, 0x00, 0x00, 0x3F, 0xC0, 0x7F, 0xC0, 0x0F, 0xFF, 0xFF, 0xC0, 0x18, 0x00, 0x00, 0x00,
0x00, 0x00, 0x00, 0x7F, 0x03, 0xFE, 0x07, 0xFF, 0xFF, 0xFF, 0xFE, 0x00, 0x00, 0x00, 0x00, 0x00,
0x00, 0x00, 0x78, 0x1F, 0xF0, 0x7F, 0xFF, 0xFF, 0xFF, 0xFF, 0xE0, 0x00, 0x00, 0x00, 0x00, 0x00,
0x00, 0x00, 0x7F, 0x87, 0xFF, 0xC0, 0x00, 0x00, 0x3F, 0xFC, 0x00, 0x00, 0x00, 0x00, 0x00, 0x00,
0x03, 0xFC, 0x3F, 0xF8, 0x00, 0x00, 0x00, 0x01, 0xFF, 0x80, 0x00, 0x00, 0x00, 0x00, 0x00, 0x1F,
0xE0, 0xFF, 0x80, 0xFF, 0xFF, 0xFF, 0xFC, 0x3F, 0xC0, 0x00, 0x00, 0x00, 0x00, 0x00, 0x7F, 0x87,
0xFC, 0x07, 0xFF, 0xFF, 0xFF, 0xFE, 0x07, 0xC0, 0x00, 0x00, 0x00, 0x00, 0x01, 0xFC, 0x1F, 0xE0,
0x07, 0xF0, 0x00, 0x00, 0x04, 0x00, 0x00, 0x00, 0x00, 0x00, 0x00, 0x07, 0xF0, 0x7F, 0x00, 0x00,
0x00, 0x00, 0x00, 0x00, 0x00, 0x00, 0x00, 0x00, 0x00, 0x00, 0x0F, 0xC3, 0xFC, 0x00, 0x01, 0xFF,
0xFF, 0xFF, 0xFF, 0xF0, 0x00, 0x00, 0x00, 0x00, 0x00, 0x0E, 0x0F, 0xE0, 0x00, 0x3F, 0xFF, 0xFF,
0xFF, 0xFF, 0xFF, 0x00, 0x00, 0x00, 0x00, 0x00, 0x00, 0x3F, 0x87, 0x01, 0xFF, 0xF0, 0x00, 0x00,
0x07, 0xFF, 0xF0, 0x00, 0x00, 0x00, 0x00, 0x01, 0xFE, 0x3F, 0x0F, 0xFC, 0x00, 0x1F, 0xFC, 0x00,
0x1F, 0xFC, 0x00, 0x00, 0x00, 0x00, 0x07, 0xF0, 0xFC, 0x3F, 0xC0, 0x7F, 0xFF, 0xFF, 0xFC, 0x01,
0xFF, 0x00, 0x00, 0x00, 0x00, 0x1F, 0xC3, 0xF0, 0xFC, 0x0F, 0xFF, 0xFF, 0xFF, 0xFF, 0xC0, 0x1F,
0x80, 0x00, 0x00, 0x00, 0x7F, 0x1F, 0xC3, 0xE0, 0xFF, 0xF0, 0x00, 0x00, 0x0F, 0xF8, 0x03, 0x00,
0x00, 0x00, 0x00, 0xFC, 0x7F, 0x1F, 0x87, 0xFC, 0x00, 0xFF, 0xFF, 0xC1, 0xFF, 0x00, 0x00, 0x00,
0x00, 0x01, 0xE1, 0xFC, 0x7E, 0x1F, 0xC0, 0x7F, 0xFF, 0xFF, 0xF8, 0x7F, 0xC0, 0x00, 0x00, 0x00,
0x01, 0x87, 0xE1, 0xF0, 0xFE, 0x0F, 0xFF, 0xFF, 0xFF, 0xC0, 0x0F, 0xF8, 0x00, 0x00, 0x00, 0x00,
0x3F, 0x87, 0xC3, 0xF0, 0xFF, 0xF0, 0x00, 0x00, 0x00, 0x01, 0xFE, 0x00, 0x00, 0x00, 0x00, 0xFE,
0x1F, 0x8F, 0x83, 0xFC, 0x00, 0xFF, 0xFF, 0xFC, 0x00, 0x7F, 0x80, 0x00, 0x00, 0x03, 0xF8, 0x7E,
0x3E, 0x1F, 0xC0, 0x7F, 0xFF, 0xFF, 0xFF, 0xE0, 0x1F, 0xE0, 0x00, 0x00, 0x0F, 0xE0, 0xF8, 0xF8,
0x7E, 0x07, 0xFF, 0xFF, 0xFF, 0xFF, 0xFE, 0x07, 0xF0, 0x00, 0x00, 0x1F, 0x83, 0xE1, 0xE1, 0xF0,
0x7F, 0xF8, 0x00, 0x00, 0x03, 0xFF, 0xC1, 0xFC, 0x00, 0x00, 0x1E, 0x0F, 0xC7, 0xC7, 0xC3, 0xFF,
0x00, 0x7F, 0xFF, 0xC0, 0x1F, 0xF0, 0x7E, 0x00, 0x00, 0x00, 0x1F, 0x1F, 0x1F, 0x1F, 0xF0, 0x3F,
0xFF, 0xFF, 0xFF, 0x03, 0xFC, 0x1E, 0x00, 0x00, 0x00, 0x7E, 0x3C, 0x7C, 0x7F, 0x83, 0xFF, 0xFF,
0xFF, 0xFF, 0xF0, 0x7F, 0x80, 0x00, 0x00, 0x00, 0xF8, 0x79, 0xF1, 0xFC, 0x1F, 0xF8, 0x00, 0x00,
0x07, 0xFE, 0x1F, 0xE0, 0x00, 0x00, 0x03, 0xF1, 0xF3, 0xC7, 0xF0, 0xFF, 0x00, 0xFF, 0xFF, 0x80,
0x3F, 0xC3, 0xF8, 0x00, 0x00, 0x07, 0xC3, 0xEF, 0x1F, 0x87, 0xF0, 0x3F, 0xFF, 0xFF, 0xFF, 0x03,
0xF0, 0xFC, 0x00, 0x00, 0x0F, 0x87, 0xCC, 0x7E, 0x1F, 0x83, 0xFF, 0xFF, 0xFF, 0xFF, 0xF0, 0xFC,
0x3F, 0x00, 0x00, 0x3F, 0x0F, 0x80, 0xF8, 0x7C, 0x1F, 0xF8, 0x00, 0x00, 0x0F, 0xFE, 0x3F, 0x1F,
0x00, 0x00, 0x7E, 0x3F, 0x03, 0xF1, 0xF0, 0xFF, 0x01, 0xFF, 0xFF, 0x00, 0x7F, 0x87, 0xC2, 0x00,
0x00, 0xF8, 0x7C, 0x0F, 0xC7, 0xC3, 0xF8, 0x3F, 0xFF, 0xFF, 0xFE, 0x0F, 0xE3, 0xF0, 0x00, 0x01,
0xF0, 0xF8, 0x1F, 0x1F, 0x0F, 0xC3, 0xFF, 0xFF, 0xFF, 0xFF, 0xE1, 0xF8, 0xFC, 0x00, 0x03, 0xE1,
0xF0, 0x3E, 0x3E, 0x3F, 0x0F, 0xFE, 0x00, 0x00, 0x1F, 0xFC, 0x7E, 0x3F, 0x00, 0x07, 0x87, 0xE0,
0x7C, 0xF8, 0xF8, 0x7F, 0xC0, 0x3F, 0xFF, 0x81, 0xFF, 0x1F, 0x8F, 0x80, 0x03, 0x0F, 0xC1, 0xF1,
0xF3, 0xE1, 0xFE, 0x0F, 0xFF, 0xFF, 0xF8, 0x3F, 0xC7, 0xE7, 0xC0, 0x00, 0x1F, 0x03, 0xE7, 0xC7,
0xC7, 0xF0, 0xFF, 0xFF, 0xFF, 0xFF, 0x87, 0xF1, 0xF1, 0xE0, 0x00, 0x7E, 0x07, 0xCF, 0x9F, 0x1F,
0x87, 0xFE, 0x00, 0x00, 0x3F, 0xE1, 0xFC, 0xFC, 0x60, 0x00, 0xFC, 0x0F, 0x9E, 0x3E, 0x7E, 0x1F,
0xC0, 0x3F, 0xFE, 0x03, 0xFC, 0x7E, 0x3F, 0x00, 0x03, 0xF0, 0x1E, 0x3C, 0xF8, 0xF8, 0x7C, 0x0F,
0xFF, 0xFF, 0xF0, 0x7F, 0x1F, 0x9F, 0x80, 0x07, 0xE0, 0x3C, 0xF9, 0xF3, 0xF1, 0xF0, 0xFF, 0xFF,
0xFF, 0xFE, 0x1F, 0x8F, 0xC7, 0xE0, 0x0F, 0xCE, 0x79, 0xF3, 0xC7, 0xC7, 0xC7, 0xFF, 0xC0, 0x00,
0x7F, 0xC7, 0xE3, 0xF3, 0xF0, 0x0F, 0x3C, 0xF3, 0xE7, 0x8F, 0x1F, 0x1F, 0xFC, 0x03, 0xFC, 0x07,
0xF1, 0xF9, 0xF8, 0xF0, 0x00, 0x7D, 0xE7, 0x8F, 0x3E, 0x3C, 0x7F, 0xE0, 0xFF, 0xFF, 0xE1, 0xFC,
0x7C, 0x7C, 0x00, 0x01, 0xFB, 0xCF, 0x3E, 0x7C, 0xF1, 0xFF, 0x87, 0xFF, 0xFF, 0xFC, 0x3F, 0x3F,
0x3E, 0x00, 0x03, 0xE7, 0x9E, 0x7C, 0xF9, 0xE7, 0xFE, 0x3F, 0xF0, 0x01, 0xFF, 0x8F, 0x8F, 0x9F,
0x80, 0x0F, 0xCF, 0x3C, 0xF1, 0xF3, 0xCF, 0xF8, 0xFE, 0x00, 0x00, 0x0F, 0xE3, 0xE7, 0xCF, 0xC0,
0x0F, 0x9E, 0x79, 0xE3, 0xC7, 0x1C, 0xF1, 0xF0, 0x7F, 0xFF, 0xC3, 0xF9, 0xF3, 0xE7, 0xE0, 0x1E,
0x3C, 0xF3, 0xCF, 0x8E, 0x79, 0xC7, 0xC3, 0xFF, 0xFF, 0xF8, 0x7C, 0x79, 0xF3, 0xF0, 0x1C, 0x79,
0xE7, 0x9F, 0x1C, 0xE3, 0x8F, 0x8F, 0xFF, 0xFF, 0xFE, 0x3F, 0x3C, 0xF9, 0xF0, 0x00, 0xF3, 0xCF,
0x3F, 0x39, 0xC7, 0x3E, 0x3F, 0x00, 0x01, 0xFF, 0x8F, 0x9E, 0x7C, 0xF8, 0x01, 0xE7, 0x9E, 0x7E,
0x73, 0x9E, 0x78, 0xF8, 0x1F, 0xF0, 0x3F, 0xE7, 0xCF, 0x3E, 0x7C, 0x03, 0xCF, 0x3C, 0xFC, 0xE7,
0x3C, 0xF1, 0xF7, 0xFF, 0xFF, 0x87, 0xF1, 0xE7, 0x9F, 0x3C, 0x07, 0xCF, 0x39, 0xF9, 0xCF, 0x31,
0xE7, 0xFF, 0xFF, 0xFF, 0xF1, 0xFC, 0xF3, 0xCF, 0x9E, 0x0F, 0x9E, 0x7B, 0xF3, 0x9E, 0x73, 0x8F,
0xFF, 0xE0, 0x3F, 0xFC, 0x7E, 0x79, 0xE7, 0xDE, 0x1F, 0x3C, 0xF3, 0xE7, 0xBC, 0xEF, 0x1F, 0xFC,
0x00, 0x01, 0xFF, 0x3F, 0x3C, 0xF3, 0xCE, 0x1E, 0x79, 0xE7, 0xCF, 0x39, 0xFE, 0x7F, 0xE0, 0x7F,
0xF8, 0x3F, 0x8F, 0x9E, 0x79, 0xE6, 0x3C, 0x73, 0xCF, 0xCE, 0x73, 0xFC, 0xFF, 0x87, 0xFF, 0xFF,
0x07, 0xE7, 0xCF, 0x3D, 0xF0, 0x7C, 0xF7, 0x9F, 0x9C, 0xF3, 0xF9, 0xFE, 0x3F, 0xFE, 0x1F, 0xE3,
0xF3, 0xE7, 0x9C, 0xF8, 0x79, 0xE7, 0xBF, 0x3C, 0xE7, 0xF3, 0xF8, 0xFF, 0xFC, 0x01, 0xF8, 0xF9,
0xF3, 0xDE, 0x7C, 0xF1, 0xCF, 0x3E, 0x39, 0xCF, 0xE7, 0xF3, 0xFF, 0xFC, 0xF8, 0x7E, 0x7C, 0xF9,
0xCF, 0x3C, 0xF3, 0xCE, 0x7C, 0x7B, 0xCF, 0xCF, 0xC7, 0xE7, 0xF8, 0xFF, 0x1F, 0x1E, 0x7D, 0xE7,
0x9E, 0xE7, 0x9E, 0xF8, 0xF3, 0x9F, 0x9F, 0x9F, 0x80, 0x00, 0x1F, 0xC7, 0xCF, 0x3C, 0xE7, 0x9E,
0x47, 0xBC, 0xF0, 0xF7, 0x9F, 0x3F, 0x3E, 0x38, 0x3F, 0xC3, 0xF1, 0xE7, 0x9E, 0x73, 0xCE, 0x0F,
0x3D, 0xF0, 0xE7, 0x3E, 0x7E, 0x7C, 0xF1, 0xFF, 0xF8, 0xF8, 0xF3, 0xCF, 0x7B, 0xE0, 0x0F, 0x79,
0xE1, 0xEF, 0x3E, 0xFC, 0xF9, 0xF3, 0xFF, 0xFE, 0x3E, 0x79, 0xEF, 0x39, 0xE0, 0x1E, 0x7B, 0xC1,
0xCE, 0x7C, 0xF9, 0xF3, 0xE7, 0xFF, 0xFF, 0x8F, 0x3D, 0xE7, 0xBC, 0xF0, 0x1E, 0x73, 0xC1, 0xDE,
0x79, 0xFB, 0xE7, 0xCF, 0xFF, 0xFF, 0xE3, 0x9E, 0xF3, 0x9C, 0xF0, 0x3C, 0xF7, 0x9B, 0xDE, 0xFB,
0xF3, 0xCF, 0x9F, 0xF0, 0xFF, 0xF1, 0xCE, 0x7B, 0xDE, 0x78, 0x3C, 0xE7, 0xBB, 0x9C, 0xF3, 0xE7,
0x9F, 0x3F, 0x80, 0x1F, 0x3C, 0xE7, 0x79, 0xCE, 0x7C, 0x39, 0xE7, 0xB3, 0xBC, 0xE7, 0xEF, 0xBE,
0x7E, 0x3F, 0xC7, 0x8E, 0x73, 0x3D, 0xEF, 0x3C, 0x79, 0xEF, 0x33, 0xBD, 0xE7, 0xCF, 0x3E, 0xFC,
0xFF, 0xF1, 0xC7, 0x3F, 0x9C, 0xE7, 0x3E, 0x79, 0xCF, 0x77, 0xB9, 0xEF, 0xDF, 0x7C, 0xF9, 0xFF,
0xF8, 0xF3, 0x9F, 0xDE, 0xF7, 0x9E, 0x73, 0xCF, 0x77, 0x39, 0xCF, 0x9E, 0x7D, 0xF3, 0xFF, 0xFE,
0x79, 0xCF, 0xCE, 0x73, 0x9E, 0x73, 0xCF, 0x77, 0x3B, 0xCF, 0x9E, 0xF9, 0xF7, 0xF0, 0x7F, 0x39,
0xE7, 0xEF, 0x7B, 0xCF, 0x73, 0x8F, 0x77, 0x3B, 0xDF, 0xBC, 0xFB, 0xE7, 0xC7, 0x1F, 0x9C, 0xF3,
0xE7, 0x39, 0xCF, 0x63, 0x8F, 0x67, 0x73, 0x9F, 0x3D, 0xF3, 0xEF, 0x9F, 0xC7, 0xCE, 0x79, 0xF7,
0xBD, 0xE7, 0x07, 0x8E, 0x67, 0x73, 0x9F, 0x3D, 0xF3, 0xCF, 0x3F, 0xF3, 0xEF, 0x3D, 0xF3, 0x9D,
0xE2, 0x07, 0x0E, 0x67, 0x73, 0x9F, 0x39, 0xF7, 0xDF, 0x7F, 0xF9, 0xE7, 0xBC, 0xFB, 0xDE, 0xF0,
0x67, 0x6E, 0x67, 0x77, 0xBF, 0x79, 0xF7, 0x9E, 0x7F, 0xFC, 0xF3, 0x9E, 0x79, 0xCE, 0xF0, 0x67,
0x6E, 0x67, 0x77, 0xBF, 0x79, 0xE7, 0xBE, 0xF8, 0x7E, 0xFB, 0xDE, 0x7D, 0xEE, 0x78, 0x67, 0x6E,
0x67, 0x77, 0xBF, 0x79, 0xE7, 0xBC, 0xF0, 0x1E, 0x79, 0xCF, 0x3C, 0xE7, 0x78, 0x67, 0x6E, 0x67,
0x77, 0xBF, 0x7B, 0xE7, 0x3D, 0xF7, 0xCF, 0x3D, 0xEF, 0xBE, 0xF7, 0x78, 0x67, 0x66, 0x67, 0x77,
0xB3, 0x7B, 0xEF, 0x3D, 0xEF, 0xE7, 0x3C, 0xE7, 0x9E, 0x7F, 0x3C, 0xEF, 0x66, 0x67, 0x77, 0xB3,
0x7B, 0xEF, 0x79, 0xEF, 0xF7, 0x9E, 0xF7, 0xDF, 0x7F, 0x3C, 0x6F, 0x66, 0x67, 0x77, 0xB3, 0x7B,
0xEF, 0x79, 0xCF, 0xF3, 0x9E, 0x73, 0xCF, 0x3F, 0x3C, 0x6F, 0x67, 0x67, 0x37, 0xB3, 0x7B, 0xEF,
0x79, 0xCE, 0x3B, 0xDF, 0x7B, 0xCF, 0x3F, 0x9E, 0x6F, 0x77, 0x77, 0x37, 0xB3, 0x39, 0xEF, 0x79,
0xCE, 0x99, 0xCF, 0x39, 0xE7, 0x9F, 0x9E, 0x6F, 0x77, 0x77, 0x33, 0xB7, 0x39, 0xEF, 0x79, 0xCE,
0xDD, 0xCF, 0x3D, 0xE7, 0x9F, 0x8C, 0x6F, 0x77, 0x77, 0x33, 0xBF, 0x39, 0xEF, 0x79, 0xCE, 0xDD,
0xEF, 0xBC, 0xF7, 0xCF, 0x80, 0x0F, 0x73, 0x73, 0xB3, 0xBF, 0xB9, 0xEF, 0x79, 0xCE, 0xCC, 0xEF,
0x9C, 0xF3, 0xCF, 0xC0, 0x0F, 0x73, 0x33, 0xBB, 0x9F, 0xBD, 0xEF, 0x79, 0xCE, 0xCC, 0xE7, 0x9E,
0xFB, 0xEF, 0xC0, 0x07, 0x7B, 0xBB, 0xBB, 0x9F, 0x9D, 0xEF, 0x79, 0xCE, 0xCC, 0xE7, 0xDE, 0x79,
0xE7, 0xC0, 0x07, 0x3B, 0xBB, 0x9B, 0x9F, 0x9D, 0xEF, 0x79, 0xCE, 0xEE, 0xE7, 0xDF, 0x7D, 0xF7,
0xE0, 0x07, 0x3B, 0x99, 0xD9, 0xDF, 0xDC, 0xE7, 0x79, 0xCE, 0xEE, 0xF7, 0xCF, 0x3C, 0xF3, 0xE0,
0x07, 0x39, 0x9D, 0xD9, 0xDF, 0xDC, 0xE7, 0x39, 0xCE, 0x7E, 0xF7, 0xCF, 0x3E, 0xFB, 0xE0, 0x07,
0xB9, 0xDD, 0xCD, 0xCE, 0xCE, 0xF7, 0x39, 0xCE, 0x7E, 0xF7, 0xEF, 0x9E, 0x79, 0xF0, 0x07, 0xBD,
0xDC, 0xEC, 0xCE, 0xEE, 0xF7, 0xBD, 0xEF, 0x7E, 0xF7, 0xE7, 0x9F, 0x7D, 0xF0, 0x03, 0x9D, 0xCE,
0xE6, 0xEE, 0xEE, 0x77, 0xBD, 0xEF, 0x7E, 0xF3, 0xE7, 0xCF, 0x3C, 0xF0, 0x03, 0x9C, 0xEE, 0xF7,
0xEE, 0x67, 0x73, 0xBD, 0xEF, 0x3E, 0xF3, 0xF7, 0xEF, 0xBE, 0xF0, 0x03, 0xDE, 0xE6, 0x73, 0xE6,
0x77, 0x7B, 0x9C, 0xE7, 0x3E, 0x7B, 0xF3, 0xE7, 0xDE, 0x60, 0x03, 0xCE, 0xE7, 0x7B, 0xF7, 0x77,
0x3B, 0xDE, 0xE7, 0xBE, 0x7B, 0xFB, 0xF3, 0xFF, 0x00, 0x03, 0xCE, 0x77, 0x39, 0xF7, 0x33, 0xB9,
0xDE, 0xF7, 0x9E, 0x79, 0xF9, 0xF9, 0xFF, 0x00, 0x01, 0xCF, 0x73, 0xBD, 0xF3, 0x3B, 0x9D, 0xCE,
0x73, 0xDF, 0x7D, 0xFC, 0xFC, 0xFF, 0x80, 0x01, 0xE7, 0x7B, 0x9C, 0xFB, 0xB9, 0xDC, 0xEF, 0x7B,
0xCF, 0x3C, 0xFE, 0xFE, 0x7F, 0x80, 0x01, 0xE7, 0x3B, 0xDE, 0xFB, 0x9D, 0xDE, 0xE7, 0x39, 0xEF,
0x3E, 0x7E, 0x7F, 0x3F, 0x80, 0x00, 0xE7, 0xB9, 0xCE, 0x79, 0xDD, 0xEE, 0x77, 0xBD, 0xE7, 0x9F,
0x7F, 0x3F, 0x8F, 0x80, 0x00, 0xF3, 0x9D, 0xEF, 0x3D, 0xDC, 0xEF, 0x73, 0xBC, 0xF7, 0xDF, 0xBF,
0x9F, 0xE0, 0x00, 0x00, 0xF3, 0x9C, 0xE7, 0xBC, 0xCE, 0xF7, 0x3B, 0xDE, 0xF3, 0xCF, 0xFF, 0xCF,
0xF0, 0x00, 0x00, 0x7B, 0xDE, 0xF7, 0x9E, 0xEE, 0x73, 0xB9, 0xFE, 0x79, 0xE7, 0xFF, 0xE7, 0xFC,
0x00, 0x00, 0x79, 0xCE, 0x73, 0xCE, 0x67, 0x7B, 0xFC, 0xFF, 0x7D, 0xF3, 0xFF, 0xF3, 0xFE, 0x00,
0x00, 0x39, 0xEF, 0x7B, 0xEF, 0x77, 0x39, 0xFE, 0x7F, 0xBF, 0xF9, 0xFF, 0xF8, 0xFE, 0x00, 0x00,
0x3D, 0xE7, 0x3D, 0xE7, 0x73, 0x9D, 0xFF, 0x7F, 0x9F, 0xFC, 0xFF, 0xFE, 0x7C, 0x00, 0x00, 0x1C,
0xE7, 0xBC, 0xF3, 0xBB, 0xDE, 0xFF, 0x3F, 0xDF, 0xFE, 0x3F, 0xFF, 0x00, 0x00, 0x00, 0x1C, 0xF3,
0x9E, 0xFB, 0xB9, 0xCE, 0x7F, 0x9F, 0xFF, 0xFF, 0x8F, 0xFF, 0x80, 0x00, 0x00, 0x00, 0x73, 0xDE,
0x7D, 0x9D, 0xEF, 0x7F, 0xCF, 0xFF, 0xFF, 0xE1, 0xFF, 0xE0, 0x00, 0x00, 0x00, 0x79, 0xCF, 0x3C,
0x9C, 0xF7, 0xBD, 0xE7, 0xFF, 0xFF, 0xF8, 0x3F, 0xE0, 0x00, 0x00, 0x00, 0x79, 0xEF, 0xBE, 0x1E,
0xF3, 0x99, 0xFB, 0xFF, 0xFF, 0xFF, 0x07, 0xE0, 0x00, 0x00, 0x00, 0x3C, 0xF7, 0xDF, 0x0E, 0x79,
0xDC, 0xFD, 0xFF, 0xFF, 0xFF, 0xE0, 0x00, 0x00, 0x00, 0x00, 0x3C, 0xF3, 0xCF, 0x8F, 0x3D, 0xEE,
0x7E, 0xFF, 0xFF, 0xFF, 0xFC, 0x00, 0x00, 0x00, 0x00, 0x1E, 0x7B, 0xE7, 0xCF, 0xBE, 0xFF, 0x3F,
0xFF, 0xFF, 0xFF, 0xFE, 0x00, 0x00, 0x00, 0x00, 0x1E, 0x79, 0xF7, 0xE7, 0x9E, 0x7F, 0x9F, 0xFF,
0xFF, 0xF9, 0xFE, 0x00, 0x00, 0x00, 0x00, 0x0F, 0x3C, 0xFB, 0xF7, 0xCF, 0x3F, 0xCF, 0xFF, 0xFF,
0xFC, 0x7E, 0x00, 0x00, 0x00, 0x00, 0x0F, 0xBE, 0xF9, 0xF3, 0xEF, 0x9F, 0xF3, 0xFF, 0xFF, 0xFF,
0x00, 0x00, 0x00, 0x00, 0x00, 0x07, 0x9E, 0x7C, 0xFB, 0xE7, 0xCF, 0xF9, 0xFF, 0xFF, 0xFF, 0xC0,
0x00, 0x00, 0x00, 0x00, 0x07, 0xDF, 0x3E, 0x7F, 0xF3, 0xE7, 0xFC, 0x7F, 0xFF, 0xFF, 0xE0, 0x00,
0x00, 0x00, 0x00, 0x03, 0xCF, 0xBF, 0x3F, 0xF9, 0xF7, 0xFF, 0x3F, 0xFF, 0xFF, 0xE0, 0x00, 0x00,
0x00, 0x00, 0x01, 0xC7, 0xDF, 0x9F, 0xFD, 0xFB, 0xFF, 0xCF, 0xFF, 0xF8, 0xC0, 0x00, 0x00, 0x00,
0x00, 0x00, 0xC7, 0xCF, 0xCF, 0xFE, 0xFF, 0xFF, 0xFF, 0xFF, 0xF8, 0x00, 0x00, 0x00, 0x00, 0x00,
0x00, 0x03, 0xE7, 0xE7, 0xFF, 0x7F, 0xFF, 0xFF, 0xFF, 0xFC, 0x00, 0x00, 0x00, 0x00, 0x00, 0x00,
0x01, 0xF3, 0xF3, 0xFF, 0xFF, 0xFF, 0xFF, 0xFF, 0xFC, 0x00, 0x00, 0x00, 0x00, 0x00, 0x00, 0x01,
0xF9, 0xFB, 0xFF, 0xFF, 0xFF, 0xFF, 0xFF, 0xF0, 0x00, 0x00, 0x00, 0x00, 0x00, 0x00, 0x00, 0xFD,
0xFD, 0xFF, 0xFF, 0xFF, 0xFF, 0xFF, 0x80, 0x00, 0x00, 0x00, 0x00, 0x00, 0x00, 0x00, 0x7C, 0xFF,
0xFF, 0xFF, 0xFF, 0xFF, 0xFF, 0x00, 0x00, 0x00, 0x00, 0x00, 0x00, 0x00, 0x00, 0x3C, 0x7F, 0xFF,
0xFF, 0xFF, 0xFF, 0xFE, 0x00, 0x00, 0x00, 0x00, 0x00, 0x00, 0x00, 0x00, 0x1C, 0x3F, 0xFF, 0xFF,
0xFF, 0xFF, 0xF0, 0x00, 0x00, 0x00, 0x00, 0x00, 0x00, 0x00, 0x00, 0x00, 0x0F, 0xFF, 0xFF, 0xFF,
0xFF, 0x80, 0x00, 0x00, 0x00, 0x00, 0x00, 0x00, 0x00, 0x00, 0x00, 0x07, 0xFF, 0xFF, 0xFF, 0xFF,
0x00, 0x00, 0x00, 0x00, 0x00, 0x00, 0x00, 0x00, 0x00, 0x00, 0x01, 0xFF, 0xFF, 0xFF, 0xFC, 0x00,
0x00, 0x00, 0x00, 0x00, 0x00, 0x00, 0x00, 0x00, 0x00, 0x00, 0x3F, 0xFF, 0xFF, 0x80, 0x00, 0x00,
0x00, 0x00, 0x00, 0x00, 0x00, 0x00, 0x00, 0x00, 0x00, 0x00, 0xFF, 0xF0, 0x00, 0x00, 0x00, 0x00,
0x00, 0x00, 
};
